node {
  name: "global_step/Initializer/Const"
  op: "Const"
  attr {
    key: "_class"
    value {
      list {
        s: "loc:@global_step"
      }
    }
  }
  attr {
    key: "_output_shapes"
    value {
      list {
        shape {
        }
      }
    }
  }
  attr {
    key: "dtype"
    value {
      type: DT_INT64
    }
  }
  attr {
    key: "value"
    value {
      tensor {
        dtype: DT_INT64
        tensor_shape {
        }
        int64_val: 0
      }
    }
  }
}
node {
  name: "global_step"
  op: "VariableV2"
  attr {
    key: "_class"
    value {
      list {
        s: "loc:@global_step"
      }
    }
  }
  attr {
    key: "_output_shapes"
    value {
      list {
        shape {
        }
      }
    }
  }
  attr {
    key: "container"
    value {
      s: ""
    }
  }
  attr {
    key: "dtype"
    value {
      type: DT_INT64
    }
  }
  attr {
    key: "shape"
    value {
      shape {
      }
    }
  }
  attr {
    key: "shared_name"
    value {
      s: ""
    }
  }
}
node {
  name: "global_step/Assign"
  op: "Assign"
  input: "global_step"
  input: "global_step/Initializer/Const"
  attr {
    key: "T"
    value {
      type: DT_INT64
    }
  }
  attr {
    key: "_class"
    value {
      list {
        s: "loc:@global_step"
      }
    }
  }
  attr {
    key: "_output_shapes"
    value {
      list {
        shape {
        }
      }
    }
  }
  attr {
    key: "use_locking"
    value {
      b: true
    }
  }
  attr {
    key: "validate_shape"
    value {
      b: true
    }
  }
}
node {
  name: "global_step/read"
  op: "Identity"
  input: "global_step"
  attr {
    key: "T"
    value {
      type: DT_INT64
    }
  }
  attr {
    key: "_class"
    value {
      list {
        s: "loc:@global_step"
      }
    }
  }
  attr {
    key: "_output_shapes"
    value {
      list {
        shape {
        }
      }
    }
  }
}
node {
  name: "Const"
  op: "Const"
  attr {
    key: "_output_shapes"
    value {
      list {
        shape {
          dim {
            size: 800
          }
          dim {
            size: 69
          }
        }
      }
    }
  }
  attr {
    key: "dtype"
    value {
      type: DT_FLOAT
    }
  }
  attr {
    key: "value"
    value {
      tensor {
        dtype: DT_FLOAT
        tensor_shape {
          dim {
            size: 800
          }
          dim {
            size: 69
          }
        }
        tensor_content: "o\275X=\357\201\266<p\276G@\336\323\363=\2200\r>\034\201\307>l\201\3509\216q\215=\226\336\227\301\001\235\326?\331\233\360=\247=\335>\347\340\251=\342\022\371>\365\235\035>\214\035W>\371\203\020\276\327\034\002\276\334\353 \274\375\001\210<\261\360\261\275lg\204:\212\320.:\343\333\323;\307+x;\027\030\217;~r\311:\220C4;[\313\301;\333\271\364:\0171t;\223\224\300:)\241\021;\332\216r;E)\221<4\202\362;\355\262\031>\251X`<a?\003<n.\035>J\361q9\211\305\353<\277\232G?.\234\233>\360\367\305>\220\304P>\372\217\200>\005\2568>\334z\215>\272\336f>\022I\034>\335\250&>N\016I>LAb>\006\255G>F,2:\265\035*:Q\016\004<\033U\341;\327\211\230;\202I\321:\025U\024;\362H\331;j\353\030;L\3466;i\221\364:\365{0;\274\"\033;\000\000\360B\030\203\027=\024\024\334<K\244I@|\267\311=\022\247\016>0\332>>v\261F:\314\333#=cD\235\301\307Y\023@\014%s>b\277[?J{\353>`\246>=bc\325;VR\024\274\375\337\033=z1\272=\223\300\302\274\372j\301\275_\025\250\275\244\340\260:\026(\025:%\241R;\334\037\247:;\2228;+\001X;\366\201\300:\320\0371;g\320\262:\317a\323:k\"\002; \370\255:v;\365:^\250\335;\264{\337;j\235\324=\036\322\001<\234{\032<\007o\213=\303\272\2049\242\376j<u\252\273>\250\316N>\262\031\005>\234Bl>J\3774>\013\335@>\005f0>\036\370\020>\036>\021>\276w\356=\017\304\001>\202G\377=\202\177\342=\254_\260:\241\355\":\356\334/;\332\313\254:_\271\032;\\\340s;\267\211\265:\203\320D;\255wS:\303\372\225:\374Y\347:$\002\206:?\210`:\000\000\026C\277\347\026=\017\274Q=\016,H@\333P\354=\240\270\036>\213o?>\363\360/:\023\300.=\001\213\224\301\320\264\030@FE\353<e\262\354>\216\323\311\275\334N*\275\304\213s>\3401]=\366\204\335=\355\371E>\205\003k\275\224B\323\275\026\016\022\2760\374\227:\237:9:\275\316\365:\0014\243:h\211\216;<\233\327:}\037\326:\301+%;3P^:\001\n\005;)\033\013;\243\235\215;\3255\034;\267(0<)6\025<>\320\334=\323\027\230<\243\357L<\210\261\264=\315\367\2279\203\331\177<\217Q\000?\311\245\313>E\250\006?W\\\256>\000\rt>\035\376x>b;5>Y\274\225>#\036\215>\334\332[>\r\254L>\214\335\201>\006\314J>\274\030\232:\377\2550:\365e,;\366\270\202:\366o\332;\251\223\001;-\022\324:\032\204?;k\306L:9j,;Y$\322:\2507\212;7O\344:\000\000\026C/\260\013=\245\216\316=S\273H@\305B\026>\360\0241>\034\"n>\326\235O9t\013f<)\224\224\301\360\241\350?]\017\310>\"pM?\237\307\304>\323S\247>4N\321<\031\346K=\003\356\030>\037Q\202\275\327 \212=\264\353><\177\337\336\275@B\3609\214\202\2359\"\202\032:\021(i:F\035\332;]\221\300:B\210\003:B\227i941\r:\020\335\002:\203V\213:\377\004);T\301\373:Z\251\371;_\'$<\266md=\350\203D<\230E\315;\201\335\236=\316\351\2568,K!<\246\001!>6\302e>\225\006\357=!l\236=\2724\302=\212\271\206=N\261\177=T\314T=\250\031_=7\241H=\354\270\177=\034]T=\353\300a=\245\307\2469\014\024i9\270\243x9\r\235\3139>\334\205;\324\2439:\222\246\2509\177 #9\252L\3309\267\036\3349]\021S:\033\357\t;Jt\205:\000\000\026C\362\226\234=s\324e=\305\234P@\243K\023>ZK\033>\370\372N?\276/R9\010}\002>.U\212\301X\304\201?TP\300>\r\205\032>;!\266=(\026\223>\372\325\331=\323\300n>\251~\364=S\271\237=\302\336\022\276\313\"\355<\341?\316=u#\001;\307R\222:\320\005\327:\240p\002;8\371p:\367\323\205:7&\212:\030\356\177:\261\345\032:i\2070:|R\262:\265i\277:o\375\205:W5\001<d\343\335;|G\n=\272c@<\212}&<\312\371\367=\335\026\2558q\242M<\2520\226>H\275d>\234\333\203>\216\035\'>D\363\016>n\253\342=R\213\255=\214\202\006>IJ(>D\206\374=\371\355\260=\262\341\311=\271\324\013>cC\276:O\027#:\000\234\357:\221\240<;\3163\3609fbm:e\026O:\005(\010:\202\004\2739\377\275\31693\013\322:\373\306\235:#\351O:UU\005C\341\005\231=\024\360\221=\344\315H@\004\032J>\037\305F>\003H!?\350\017k9\247\330\265=\363}\222\301\007\270\227?\"\375\305>\373\371\016?)\203\361>\313\004\230>\036\206D>,\211\213>\365\2121>\214-\341<\312\304\204=tA*=\300n\005>\200\240\3559\216\022\2049\313\2521;\302\'\243;\027\264\233:=\354\205:\236\306Z:\013?\302:\324w\253:`\370\2419\032\204\3449f\244U9\271\270\362:s\027\n<\235l\022<i\207z=[V\013<\023\305\241;X\367\333=9=\2748\032=\376<m\351\215>p\"B>\230JH>\211\367/>+\247\362=DR\027>YV\330=\340j!>\302\314\024>\242`!>\021m\035>]/\026>\357k\370=\007\333\3239Y\030\0359\322=\350:\376r\375;\024\316K:`\234\264:\017\353\3529<<\345:\211Z\234:m\215\"9\302\353\3549j\245\2438\\\306\375:\000\000\360B\337!\205=sN\344=\26234@\005\313\022>r\301\032>P|\035?[\020s9C\361\315=\236\315\206\3016e\251?S\031\243>\300\246\007?U\375\266>\215\336\350>\374~\025>\r\302\324=\270\375i\274h\367\n\273\347\003\241\275\016\016\024=W\354!\276\205\271\215:\305\3438:\244zR;*\216<;K%\356:\037\264\030;dNO;G\342\334:7\035\374:h\261\313:\206-\006<\251\355\226;EG4;A\266\\<}\322\027=\366\301\177>l#{<Q\345+<|\0004>\350\254\2618B\243\010=#3\000?\206\306\272>\374Q\365>\231n\217>\265 \232>\246\247\020>C6J>M#L>\177s$>\022\207\033>(\205\036>Ls\t>s\273\016>\000\367\037:dC\014:e3\321:\235\037\007;\236\353\237:\310\014\033;\202\220A;\227(\230:|\362\022;\215K\254:\306k\270;\017\254D;\251\356\247:\000\000HC\272+j=\276\276\362<m\376E@F\216\023>\007_.>7-\301>\265\177\2639\350pj=\247L\230\301V,\303?3=.>\n\025\302>\320=@>\243\215\347>\000\310W>3-\226=\201W3>J\357x>\326Zd\274\004\231\305\275}\272\006\276\366\351^:\261\035P:\320T\005;m9o;7\322\036;W1\322:v\351\202:\243\213\242:\027\306N;j\324\n; h\314:E\212\204:\027\006\322:\334\217\035<\017\255\320;)o\300=\2451=<\0301&<\372x\250=c\227\3518\243\345\215<gU\374>i\353R>\225\232\263>\"\341@>\2742q>\004\332n>z\2614>\\\'\227>\361Xy>cc\014>\374Wa>WC(>V]\037>\\ct:\354\246\022:]H\253:\323\201\033;\337\374\377:\361n\200:\216\225Y:\227\314\246:mo2;\335\236\016;\205\345\274:~e;:4\243/:\000\000HC\344z\247=]5j<jJL@-\276 >\316\304 >p\307R?\255J\2109\303\306\020>K\007\234\301\022\277\215?\316I\202\276\306\257a>\010M\222>\257\222\n>\031\240f>\r\332\352\275\023)\035\275\347\036\030>\312\210Q>\356\3578>;+\000=\346;\027:\327\337\010;*\221\017;\231\000(:\341. :\366\n\235:qk\004;\200\327\013;Y\323\213:\236D\3739\232\023\254:X\271\002:=z\332:m\231\260<\034\032\204;\210\255\255=\005\317\352<%\254\222<+\310\232>Z\334z9{\235l=e\tN?\322Q\363>\276\336\273>3\303\203>\202\3554>\361;_>lB\\>\330\247\235>-\263M>\366\034@>\346 \207>*ss>\230\300\365=:\021\3609\346g\260;\314h#;\324\177=:\007\222\023:\036\036z:bL=;\243\242\013;\260k\323:\250\256(:\363\030\325:\226?\000:\005\305\274:\214.\332B\204\317D=\274\224\036=0eO@\255\306\343=\362Q\016>\324!\271>SFC:\005\327\225=\350Q\230\301*\345\305?\207\366\332\276\261[\323<\2248\304\275\022\341\320<\237\024\354\273\353\232@;r\313\014\276{\201\216=\303`\021\276~B\025\275\230\337\370\274\360\003\273:\353\373\243:o\310\000;\205\213\327:\316^=:N\220\2779\207r\003:\003\235z:\343&\017;MA-:1=\3029\235\217\233:\305\007\335:\210\272O<\327\267\274<\230\207\312=\262\321\272<\334\241\275<\320g\'>\036\244\2179\325\227\347<vp\231?r?\273>@\301\316>\274v\251>\rI\224>f\256\247>|na>\0025\210>\343\343v>\032\005\220>\361\210\233>\223\202y>\"|\210>\305\t\031;|\202&;\251\214^;k%\372:A\263@:\245\316\3309RI\3649\236&\255:\241E\200;@\2211:\026\304\3059\326\243$;\241\273\241:\000\000\026C\177\272\302=-5\251=\243,L@$\352,>\230\3005>\003[G?\314*P9\246y\371=\027\364\204\301S\352\213?\315\341\304\275\302\346\231>&\3150>\205\224l>\363\317\236\276\276\333\240\276\"]\006\276\2443\235=\254u\243>\216\242\210>\324\017\262\275\324\213k;\201\276\224:L\332\276:\244\202\016;\364\270\366:\244\253i;*\276&;Bb.;\263\024\021;\316\204\307:\277U\345:\347 \254:V\006\020;\3053\260<\351\315R<\360x\304=\365\003\260<\231\326\200<\031nP>\326\rs8d\211\370<\360\314\310>W\320\202>\\\347\274>7H\244>u\0345>\207\315\202>#\316Q>\030\036Q>A1\\>\210\263\261>\232\335\302>\177\230s>t|\212>}R\330;Bu\227:\247O|:\222\336\026;\021\376\343:\002\365?;QA\007;\022\250U;\010\201\360:Dq\261:S\332\014;\272\226\306:2\265\330:UU\005C\300\327\202=\230\"\221=\355fO@\206J\006>>r\013>\021\317)?\255%\2429\026F\333=S\247\216\301\300\343h?C\262\366>]D\333>\340n\320>*e\220>+\251\246=\314s\241>.S\035>\255K\212=\347\243g>\327u\030>\223\320P=fo\036:_\266\2239\213I\023;\320i\253;\375\"\034;\3055\206;\026\256V:\275\337\206;D\360\23797)\3249\307\3114:\321\005\3419Wr5;\307\311\227<\320\017X<\342\260w=\350\376l<\001\3507<n\376\202>B\267\3758\357\333\000=\337\375\025?(\033\320>>\365\025?=nC>\346\345J>\261 \031>\013E\003>OJ2>\222\013\351=\237\302\">)i#>s\214$>\376>%>\261m\020:\250\274j9\253,\031;c\207\370;\337DA;\233\212\202;\234\351$:p]\236;\301\276\"9)t\3249\006\327\021:\2045\3159\204\215\002;\000\000\026C\320\007\222=\023J\315<\306\227F@\344\245\027>\275\023!>\371\311\037?wam9|\032\324=\2015\223\301\347\025\273?\313\003u\276o\372\241>\020\364/=\243\257\205>\004\017\330\274(\350\243\275\032\034\033>\301\264\354=\250\367p=g\213\376\275\327\212/\275\361\212\021<\033\rv:\233k\365;\262zl;\215\312^:\301=\274;\332DB;-\000\256;\235@\232:=u\234;\254R\355;\363h\3269\007\232\241;\304\361\210<\236\033\242;Z\010\346=\022}n<\2145*<e\2655>-?w8\351\034\t=\201\000\300>\211\027H>E\n{>Th&>\230\023\027>\202\373:>\210\3769>\252\364S>\316\2410>\001\314z>\316\213/>#\333Q>\226_+>\250\322\373;\2026\272:CF\017<\222\304s;B\r\r:\270\324\234;\215]\367:\226\212\211;&\"d:L\216\206;\221L\345;\330?\2149_c\001;\214.\332B\242o\307<\334(\023=(5L@k\274\342=\207t\">`\335\304=y\345\321:\370Q\327<\010\253\242\301\276\316.@\371\t\307=\221D\232\276z\242\227\276I\221\004>\275\243v\275\356<\344=W\237\">\327\260?>\365\365\t\276\306g\203\275\021}\007>f\201\021:\000\361\271:F-\263:\220\350\024:\t1\211:\310\242\2479\004\330\3439\211sa:\217\373\3449\n|\263:^\353\3369\030\257\3249\003\262\200:\013\254\271;]$\014<G%\363=\025 \231<\223\022\214<\001w\'=\213T6:\262\251\341;\260U\013?\324!\326>0\270\300><e7>\341\327\207>\217\014\245>\340V\267>?\236\216>mw\320>\346\220\323>Mx\254>L\370}>;\020J>\325\264\032:\327\266\200;Ox\304:\224\240a:\265\211\310:^t\206975\3459\277}\261:J\340\002:\375\277\351:\310\t-:i\212\3379\026R\214:\000\000\026C\3524\210=w\376\246=\031\364R@0+\035>(\271\'>j\376\032?\370\316\2029\305N\306=\243\360\212\301\323?\250?\255\003\"?\356\030\000?Dr\236<\224k\215>\240\303\000>Sxu>\317Or>Ui\266=\234\022^\275\260\360\355\275\334\023m=\205=\327:>w\006:\260.\377:#2\305;\253Q\030;K\322\225;\351\215e:\245\264p;\210\026{:\r\014\312:w\034\007;hV\206:\001\242E;2\3109<\ny\211<\253\033,<\302\254\265<\'\262\253<\027!\t>\221\347\2608\240\206\276<\037Y\024?\257@Q>\003dr>J\004;>_\313Y>\3259\014><n!>\225\365\313=\201\365\344=\307uA>R\003\021>\246\013\025>\343V/>\223[\222:\343y\2469\005{\360:\245\346%<C\333\342:\037\253\001<\323\241\025:1\266\240;\361\035;:T\345\200:\376\033\335:\002\371K:wiA;\000\000pC\335[M=zI`=\224sG@\313H\362=\315\247\030>\267\341\222>\001\225H:\323h\204=e\226\234\301b\324\035@}\335k\276I3y>\177Aq>-\030\320=@F\350:\322|\233\276\214t\273\275>\203]=wiM\275\2131c\275\344`q\275\207y\242:\006\270\034;j[\210;9.\222;G\031\000;\344U\207:\027n\027:\t\245\2639\212q\3629\332\367\241:\320\350\331;\377A\2619\014 \202;\023\271\t=\322C#=\274\334\255>\215\246(=T\352\316<jA\246>\313a\3309\204\033\\=\205\211\375?\200\361P?\277\003\020?\"t\330>\250\020\235>\2278\202>E\310\201>\021Q\224>\2240\201>L\352\207>`\035}>9\334J>\017\016\210>\332\245@;2\264\';\370D\265;\377\343\366;\343 7;\263\326\274:\217\2214:\344\240\3169\255J\3059\315y\033;\363=X<r\216\2209\021=Z;UU\005C\025.g=\216z2=\302\354K@\n\n\005>c\224\027>\033\215\375>t\234\2059\316\333\250=\250\237\216\301x\337\276?z\221\270>\\U\021?V\212B\276\351He\275fN\204>|\023)>\\\314\351\276sr\021=\016\216\032<\344\350\324\275Si\005\275~\315\035:\r\033\014:h\217\261:Fx\034;\337\227\252:m<(;r\202\246:\3403\362:\364H\317;i\244\030;\330\035\327:\301e\000;\003\'\362:\036i\227;\346l\311;\177,:=g%\266;x\271\276;\004\247\204=\367L\2178\340\027@<\317\373\213>6\033\026>RE\220=\326D\017>\023(\324=R\336\322=\'\024[>\305~0>\311\345\205>\223/$>\277\207\341=\000\033\264=\355\325\346=\267\236\3029Y\354\3469\227\231F:\204\266\r;\030\336*:\247\261\322:\241*+:\370\355\235:\213H!;Vk\324:\360wr:s\217\216:\267*\t:\000\000\360Bm\213\316=\326O4>\372}H@\362\267]>\225dC>\002\021V?\344\323F9fY\030>i\273\215\301\315\327\234?2\220\\?T\2316?B\002\212>~\301T>T\2772=n\033\"=\322\342H>`h\213=v\2462=*\351\016>p\262&>\205[\3239\311\025}:\177*\036;Z\277c:1v\037:\016\275\254:\253\324\361: \330]:o\314\005:\263,6:I\010=:\240\263\023:\347\240e:\244\324\217<\020\364(=V}\014>9\355=<\023\330\025<1\227K>\001\327\3008Tc\\=\313\001\035?=\r\010?\224\242\377>\027\344\320>\371\322\'>\371n3>\270x]>\032b!>\001\371,>`\231A>W\334,>\315\n7>BB\353=\'\315\3709J[\202:\252:\236:\322k\020:\202E\2179Z\277s:\016\306\371:\373\320\020:_0\2649m\216~9\345Y\3439G\375\3779\365\202\3609\000\000\360Bs\345\241=\246\300\201=\205\353O@A\t\'>).&>\326yE?\216_r9\254\214\372=\201\314\214\301\032\326\234?\346\260\031?\256\025\010?\247Gk=7\236S>\225@\217\275\"\337\013>\341\250\274=B|\024>\032B\342\274\250\302\243\274\005\273\276\275\262\266\363:\216h\004:6\250\255:_,\363:\327h\225:\0101\037;\2740\273:8\036t;\367\220\247:\305\241H;\270\025\034;\332\'L:\3264\366:W\335j<6\320\007<\266s\013=\307[L<\020\210\333;\001\244\030>\021\225\00095\377\362<\030o\354>1\347m>\360[\223>\317\005\207>\227\r\031>\363^;>r\331O>/c?>\2503F>U:(>\265h,>i\276->w|\367=\327\226\300:D\'\2209\033ua:-\353\271:\3035\200:\251\367/;0\255\271:\020\005\205;|\204\214:\024\333!;\351\274R;W+^:\220\373\204:\000\000\026C\221$\346<e~\202=\022rF@\226w\273=Z\236\010>\373\314L>{u\036:\260^\357<\233\216\221\301\231\r\024@V\337\006?\332}\010\274$\315\332=\351\016\261\274\253a\312=\362\231\331<j\333\264\276\356\335\333\275\n\251\246=\266\314Z=3$-=\205q\034;\254\022\266:k\246};\257\221\031;\"\204\224:\227\002\334:D\235\237:\221\305\346:\356|\004;%\277\332:\257}-;AH\253:\367i\002;2\355\243;\267\316{<\313:\260=!^\362;U6#<W\010{=\361\327U9\016T\t<\362\'\340>\036C^>\273\302]>\272\016+>A\307\326=\233D\362=]\373\036>\311KH>\3573\201>!\r\205>\304QO>l.0>\321\352<>\266\341a;s\006\225:n k;\345 \335:E\203\213:2<\262:,\227t:3j\002;\274W\021;i\315<;4\3665;y\301\256:\360\261\206:\000\000\360B\276e\177=@\275o=?~C@:\203N>M\251S> \350\345>\177U\'99\303\"=pr\226\301\242\324%@\233\033\246>\230\"\311>@KT\2755\322\005=K\272s\272J\321\274\272`\301~=\222\312\323;\032\306\266=au\316=\323d\244\273\314s\250:\315\374\3559\367\n\377;\253~\202;\223\230.;&p8:\0064\225:\326B\335:\212\227f:\351@X;\350\277U:\377,p:\023i\035;Y\241B<,\322y<\261&\327=\034\223\277<T\265c<\354\377\000>\342s\2178;-&=8U\232>U\353d>W\313\375=\276\205\032>rz\336=>r\274=}\336\335=\375\361\355=\004\277\214=\240K\241=\373\370\317=G\271\251=\303g\220=\0315X:\303\257\3039R\to;\231C!;\002p\304:\227\221\000:\203\214=:\330\364\203:e\032#:\'\336<;\214c\023:h\367\305:1$v:UU\005C\304\360?=\252\002\210=\022.R@\002\337\n>\234=!>\224\335\274>\212J\017:\217\302u=m>\217\301\247\005\000@\345\267E>\'$\226=\306\366\272=\034\315\253>\3514\223=8\331!=\323\346F>4\274\001:u\365\260=@\316,=-\313r\275\314\2339:m>\215:\321\215\256;\254U|:\361\214W:\020\365J:3|\007;!\317\215;\234]\200:\333\301\022;\344rO:V\322H:]R\026;Y\305(<E3\014<\361\r\260<\372:5<\277\231\'<C\027\334=y\276\2019.\004\271<g\313/?\253F\310>\206\376\267>\240\371L>\354\007\223>\205\017f>x\276\037>\330\371Y>\236M\'>A\312\037>\273\301#>\341M`>~\237)>\232nT:gw\231:\233a\275;-d\':\377\026\222:\203\361\010:\035u\322:\222<\231;\222\\\021:\212C\362:\204O\232:P8b:\351\021\277:UU\005C\027B\025=\227\326\334<i\356F@rV\253=\t\n\326=[8\200>)\246\331:\335\265k=*\205\241\301yQ\332?iW\231\276@\347\331\275_$\232\2763JZ\276\342U3\275\322H\002\2769E\037\276`\241\005\276\'zR\276\021\0139;\266\205\004?\"#\2739\010\336\2019\363\212\311:\312\013\005;<Ci:\244\020\250:\260_\2339W\215\262:\226+\3029\r?\3769\324F):\n\237\2169d\237\260:F\237:<\231\013\215<7\n.>\314UT<\273\202f<6~\r>\333\010\023:\276&\262<\340\302\225?\227\225+?R\323\221>\261]b>\213O\266>\'\026C>\271\230\240>E\023\246>\3725\274>\232\017\301>\334\272\301>\324\300\221>9\016\221>\207gV:\334)\3619\213\031@;\177\337\';\304\360\227:\026q\035;\204\257\3009\032\301s;\010]\021:K_c:F\002\224:\214\355\2249k\273\237:\000\000\226C\023\333\227=\3719\236=\372?P@@T\027>`\016%>\275D*?^\223F9\306\246\327=\313\250\205\3010f\262?\226N\024=7\203\006?G_\251=\216H<>*t\263\274b`\222=\217qx=\325\202\220>\374\037<\275\251\037<\275\306\200\036<\243\262\221:)\327\231:pd%;\310\r\242:<Y\023;\350\230\310:\"\370\376:\253\246=;ET\211:\0038\257:t\251\010;t%\341:\331\331\254:\225\266\003<\'r$<\'\360\355<\237\017Q<\025\252\032<\335\353\317=3#M8\313\316n<\357\311\244>O\271;>\352\266m>\351\034t>\245\256^>\260\217M>\303\031\t>j~I>Je\030>\223\335\027>&\366\355=\245\220\356=\262\244\265=ab\010:\263K\r:\"\231\322:6B5:\310\353\345:~\314\240:\252\024\266:Y\241\022;\273\342&:TF\210:\210\247\370:\004\2463:-\273\3769\000\000\360B\226\214\224=\311\227\226=\333\213F@\347\334->\220\2339>\237\211\350>\232I_9\3013\031=\332\233\224\301y\307\n@N&z?\037\375\364>\025\246\210\274\357\250_;\254\305\201>\0006\274>W\030\251=m;5\276\345\346|=\367\226\202>\252\034K=\006\302T:c\017\030:Z\013\243;Gv\013;\003o9;l\033\004;\260P\341:\207\345\252:\256\021\373:\374\017\240:\361\3257:\005\251V:\267!\311:\255\214l<;2\377;\013\207\301=\355\231\341;\020\023Q;OY\243=\375\t\2118\344E\265<`f\206>\202\\&>;\250\004>e<\351=W\343\303=r\344\344=\241\325\370=\360\017\366=(\036\351=N0\315=v\343\344=b\340\177=S\212I=xZ\3279\300\217\3209\210jN;i\374\244:\027\'\242:B\036\216:\370\315\213:\271\305i:\347+\245:\0364r:\371\325\005:\202\326.:\273\303;:UU\005C\336\322\247=\342\317\362=\210\317I@>|;>p\3745>?\251:?\341\320\3458Yo\371=\\{\211\301_\263\273?@\317\005?8\315\224>\360\022M>\207ZL>,\204\347=\232N\212=\201\273l>PYI>\022\373\234<w3\274=\224=c\275\200\360\024:\244\340\202:~\352\211;`\235\211:)K\371:\332\366>;`\203w;\234F\';\022j\215:f\305\017;\2310\221:\320\377\3579\377\241\t;\343\230l<U\266\255;\273\336g=a\327\201<\304\341\266;e\210\026>\357\006\3767\235\tG=\037\330\266>\004\356\375=\347\377z>\376\317\016>\307\0051>\210\312\303=\r\263#>\034x\032>^/\023>M\330\354=\335J\354=\272\367\331=\302\241\377=\323\361\2419\353\267\021:\022\243\023;\010\303\036:\260@9:\211\034\210;U\362P;$\260I;\270\010\013:e\2600;:\352\3729a\20259\354\001\210:\000\000\360B\207l\232=\200?\240=\311CO@\363\2254>\215\347\">t\330X?(\312l9\306\030\003>\377\223\222\301,\217L?\265\027\305>\230\326\203?5c\037?r\0160?\024\242C\276\247nU>\312\032\366\276\t57>%\200R<0\251\004=\326&b=i\346&:\027\321\2349\376\240\017:t\310\2609`(}:$a&:\032L\3419F$3:c}\3509tj\\:\352\237\315:\226\337>:<\351\3529\316?e<MG\212<\207H\r=\206\227!<\374\343*;\246+y>F\245\3258*\267e=P\256\376=F\216\207>\271\003\260=\351g\204=\304L\341=\375~\n>\"j\022>\227\271\014>HX/>,0u=\036\373a=\310\315\036=/lb=\355\277\2569]\373\3468\"y\2029^\357J9li\3009\2363`9\227\367\2349\212\333\2529`\267\2559\255\352\3059\231\347D:%\376\2549\"\235\'9\000\000pCU\014(=\306\364\213<e\366K@\036N\345=\244\207\024>\246\303\224>\210{\3569\035+L=\355\331\234\301\377\326\364?\253#\325=+\334\227> \257I>\233\347t>\312\212\363=B\221\316=\034d\307\275\037Dt\274\036\367\233\274 E\222\275}))\275_e\032;\265w#:\310\240*;\227c\217;\320f\337:\212\202\306:k{\246:2R\311:\017\351\217:F.\246:6\251\265:\315\241\275:/H\003;\267\205\021<\367W\304;\376\007\023>\321\246g<\307O4<L\266\302=\220\350s9\265yr<\0216{?\311pq>\260\014\026>\237:\322=y\375\372=\006\220\374=\342V\017>[a\371=\360\305\221=\244\277\333=\240\224\334=8\347\306=\3233\365=\235l\000;\255\345\3109\234\006!;\030\351\367;\377g\353:\313\000\226:%\362\200:<\357\033;\217\326\236:\341Mm:%C\340:\003Z\241:d\221\356:UU\005C\314P\233=\373\354\251<\261\003C@W\202+>*e=>\327\271\n?\304T\2509\237\330\240=zI\227\301\205\301\372?\204\260\215\276z )<!\3029\276\356\227t>=\230\002>\027\301\201<\031r\217\276\331\3603\276`\252\031\275\377Sm=\240\367\267=!u);Sz^;\001_\311:#V\223;nn\257:>\3078;P(A:\216F\3219g\251/:$\026y:\007\003\360:\277\031\213:[\203\364:J\251\022<n\"\327;\255@\357=\311\340\030<u\370\002<\337\274\362=\2438\3218\334<\235<R\001\002?\025\241\216>\027 \375=q\031\322=\317L\363=\031\016\036>\324q\016>\301\315<>\005\221\001>\302\016\022>\207\036\031>\327%\001>\234-\337=\255\353\323:\027\0007;DO\236:\306\233d;\020\336;:N(\354:(mk:\313D\3679\254\235Y:\273,;:md\316:5\352I:^\324D:UU\005C\273~L=\362\2509=\274NM@\267\260\r>\355\260#>\021\202\251>Be\033:s\244y=\323\225\225\301\311\205\377?\214\313\353\276\023{>>\'\233c>\003\323\014>\205\210\004>\002u\262<\005\223\205\276\3373$<\005\310U>\3415W>t\322\242=\357\255\021:e*\035:\261`\213:\\(E;\227\214\304:\344\274\026;\263\013I:\260\201\250:\313{~:\327\203\003:\324\2337:\2116V:e\354\326:3C\035<\216\257y<\016\235\265=T]\275<U\350\206<\002\334\021>\376\254\2039\'\306\265<9\211\005?h\001\315>VO\321>\021\200\221>\363?\265>\201\212\315>[\206\217>\375\033\233>\334\036\237>\225\220\242>Gwp>M\010x>\351\211\255>\221\273y:F\361\245:\367V\204:]\226\221;F\327\270:?\357\220;\\\034S:\245\3325;\351\223\230:E-\002:M\030\3779\327z\215:\234\004\277:\000\000HC\001\377;=z=\007=PvN@t\316\023>\024\2610>\321\n\334>)\250\031:)\222T=\273\201\237\301\357:\003@\361Kq?\222\354n\276$\277\377>&\224\006?#\2403>\226\031\304=|\311\261\275u\304\005\27616w\275\330(<>\207\2074>.\363#:o\366n9\020\303\241;oN1:h\250\217:\245\327\032:s\204*:%\264\030;\t\327\2549\203-/:\364Q :\304\tF:\314\337\354:Q\020 <\016j\313;\034\217\214=q\361\024<\345\276\332;(\235\357=C\230\2379\021\016\002=L\317\023?\037XX>\230_B>\255\355\022>\300Kr>\3512\213>\271!\220>3\276B>\352\007(>`\004\t>\r(a>zx4>;\321\334=\027\304Q:\200?\'9\274\213\223;\004`\3749\013,\000;\262\333\023:V\220*:ZV\';C\361V9\367\342K:\311\036\3649\256\375/:\250\362\202:\000\000pCf=\236=5\247\250<\363\260A@@\310\001>\313G\002>p\2636?\210E\3109\263\265\002>\230\200\232\3013\377\024?\373+\305\275\3033\032?\020\260\245\274% 0>\006\'\223\274\337x4<\352\010\\>}@\035>\010\217\241>\231\307\365<\377\334\207<\352\232\022:x\205\241:V\000{:,\206<:\032\301\246:\004\021\371:\363\023\020;\'\353\003:\206\234M:T\030\267:g\2277:\204K\244:\022-\253:\301Ou<\313\366K<\277\225\027>\032\310T<\330\016E<\344\345J>\356O\3628L\254\002=t\335\201?\351,\306>\200\341\307>\275Q\204>Y)3>\026\322\207>\347\000\202>2\354}>\236\023\257>u\'\222>\255\262\205>\034%u>\277\207a>`b[:e#\244:\313)\257:s\005\024:\344\253\\:\350%\017;\225\210\n;\322\244\027: -E:4\356\022;\002P\201:\314L(;\010\016W:\267m+C\301zJ=\032\340\024<F\354&@\370\217\252=\t\010\251={Z\320>\036W!:\344>\263=\324\253\251\301\256[\020?{\351;\277\337Z\243\275:($\277\002\027\007\277M\246\212\276rn\230\276&x\251\276\207fl\276\220\201D\276\323Op\275\272\325\327=mD\":k.\345:\376l\010;\307\213!;\313\374\211;\272\232Y:UG8:\026\'\225:\227\263\214:\340\205\335:\315T\207:/\027w:\007\333\377:\342[\002<c\221\036<\344\334\310>&\035<<\021\032?<\310H\211>\r_\1779\320\260\366<\324\360\347?\264\236>?C:\017?%v\307>\375\025\207>\346\274c>\264C[>\331\030\221>\357\347c>\213\343\227>\341\001\246>\351\300[>\027\307\203>\203\253T:x\233\005;x\312D;D\337*;\272f\027<\342va:G\326\211:\360J\222:\274\326\245:j&\315:^\264\211:\004\367\324:\307\324\";\000\000pC6\223\273=\321.\226<!\371J@r|\377=\241\031\345=\256\203n?\321*y9:C#>\375j\236\301\"\030\300=X\017\260?\327@\241?\037\306\216>r\035@>\304\024\362= \321\312=\312\325\210=\024\222\213=\365\'B>\266S\014\276w\307A\276\'\340F:Z\315\3639\356\311T;\016j\362:\317WA;\246T\031;\302^\373:\007\006\n;]\316\342:\250\364\235:~O\037:\202jM:\354\267\361:\373#A<\304\"`;\221\315\017>\363v\334;\364v\037<qI\n>>\362\r9\361\345A<\366;\315>\001c\343>I{\262>\352\333p>\341E6>\241\013\337=2\r\325=\262\013\267=\241\324\213=w$\300=O\353\341=_\007\275=b\024\003>\231\014\024:\214\021\2379\270\327[;\361\371\261:NY\212;\322Q%;*\014 ;\2027\374:\035\266\276:[}\303:\203~\3739\336\303;:\rG\233:\000\000HC\370C==Z\345\212=\005OH@\'\234\005>\367F\037>\007:\257>\306^\3019\265R4=\030\014\217\301\306\366\026@\250\356\021>\177$R\274\034\3302>\036\365\034\275\016x\255>5\331\020>w\207\030\276\243\272\215=\017c%\275\335\206w\275\265:{\275\317\266s;\3705\371:\000G\337:\373\037\213:\317,\345:\336u+;\027\001\013;Ax~;[.\351:N\013\251:j\030\322:\270:A;\204@\006;\201\356i<%\370e<^\342\034>\344w\244<\256\032.<F\354\006>\237A\0049\311\3372=A*\r?m\355i>\000\020\265>\373rJ>g*\210>\360K7>\3750m>\017\256\004>0uV>\024\022\000>(\246I>\3120\">\322\2663>/\3720;\212h\000;\025x\273:\332o):\313L\311:R_\321:|\326 ;\200\330\242;\276\306\004;\252\204=:\022\233\233:\375\351\';N\024\231:UU\005C\306\206\246=3]\237=mH=@\202\264Q>KrT>5C\022?}/v91\355\210=\333\273\217\301\305\203\360?*\357\321>C\246\001?\222*\227>.5\213>\215\363\010>\034\223\t=#\032r=/K\004<\360K\322\275\377+\001\276\366\312\"\276\215t\030;/e\275:\201Q$;\304\316\362:\273F\002;\247L\357:\004\253N;\215\r\352;\221\300D;\256\212\346:\261\247\255:\337wj:\201\247\025;}p\223<\247x\203<1\317\354=\025\327\222<\241\332\330;\221\\\031>\364\212-9\365k\036=jX\267>\252\237`>o\366\314>\010\344\035>\326(&>\337\202A>{\302I>|\261>>Z\000\004>&\252\002>\26222>Q4c>D\347->x\255\177;\327\001\333:$\022\333:\270|\226:\234u\367:\256\245\206:N\310\030;\0136^;~\240\004;\322\204\215:rjp:\242\000,:?j\203:\267m+C\274\372\221=\241]\312<#\343I@\004.->@\3256>\003\313\023?\271JO9\371\037\257=\267q\231\301_\020\352?mp\257>\364)>?^\236\246>\2336\024\275d\304`\275v\3248=\303\244\027>\t\354\223<\320\237$<\205h\210\275\250\021\000\276.\006t:A\317`:\216j\003;K@\026;T\342&;@\tO;\306\230\033;\201(\032;\230\320\016;\312\366\031;\306\202\350:)\315\362:>\341\265:\002\271j<\202\310\216;F\256\374=e\001&<\255\246\236;\363\3238>\376\217\2218\266t:=\266H\322>O\001\253>\344%\227>\211\251O>\023\216\353=ur5>x$\037>\376\030!>\213\032\014>8\3105>A\336\037>w\306\010>!C\341=h\247S:\366\366\3569&w\246:\032~\000;\034\006\322:\010\224\332:`\344\307:G\323\005;!\006\371:\247\325\r;\260\034^:\312\340\207:\337X\025:\000\000\226B\323\221V=\336\367\\=\355\367I@@\250\377=>;\025>\2140\326>O\224\3529z\247\234=G\031\216\301\247\206\324?]\362\342\275\277\203\333=\241t\374=\235\375\315=\215TQ\275\230\\\356=U\031\034\273s\350\212\275\351U\005>\301\r\347\274\215K8\275DT\030:i\233\014:}\273\242:\323\332\300:\005\350\207:8}\211:\311\211\301:_\233\322:\243\354\206:\177\344\267:1#`:~y\207:O6\204:\226\236\201<\246\006\223<\210\262\371=\333\326\302<\341\013y<=\261@>n\027V9\274\202\356<q\016Q?A(\330>\033\320Y>\200\'\205>\264\347[>$\252^>x\2148>\266\021Q>\302!q>\021\022F>\013\275)>\263\222j>U\250/>\302\367\020:-\335\013:A\365\224:\214o\034;\374\021\240:\025!v:\237\343\202:\265]\276:C$h:\326\212\277:\215\034b:\203s\257:\276\271-:\000\000\026C\345\373C=\251<c=?$M@\247n\017>\357=+>k\031\301>\t\327\3439\361\304x=L)\221\301\003\367\346?\3272\353>3\237\262>T\213\357<\262C\200>P\337\013> \001\336=\253\'N\276Q\273K=lrj;\016\347\227=\265\014v=\332\336\271:*\303\020:Bz\353:\243\322\004;\211\230l;\2142\020;\232\363\227:X\366\201:\225\253\034:\225\310l:\253\303\202:\260TM:*\037\274:\265\0321<N\340~<@ \246=\340\367\323<\200\032\242<\361\304\t>$Lk9\312m\303<\360\232%?\350\244\222>\320\302\232>\000\000\256>i\260s>\262^->\300S\203>|\244\036>\231\344~>\214\226\033>B \337=\"^\010>\317+\372=\000G\221:\'\236\013:\256\311\363:\002\272\303:\265\025\254;r4\364:\317\237N:\364\361,:3>#:\005\222-:/\3371:f\241\3329^\250\254:\267m+C\0264\203=u\307\316<ARO@Fu\031>$\234,>Z\235\n? %\2069y\026\265=\3411\225\301p\204\267?5\257\362=KT{>\273Y[\276\033\344,=z\325\200\274\007\266\362\275\304\341\303=5\304\026>\321@`\275\202n\017\276\336I\332\275\362\243\250:\310\020\227:%}\001:\031\316\254:\366\306Q;\304\005\243:\033z\371:\341\013\3559w\320\375:\237Q\';2\034\200:\354dN;p\207\316:\000\007_<\230\236\210;T\202\032=\247\021\207<:\324G<\362\344\024>?\272\2728Z\017\251<t\247\317>\326j\203>\333@\036>\315\367\">\342\350b>\312\301\203>Xv\200>U/\224>\256\\\210>]\215m>\272ZB>U\024\037>:\031\r>\347\305\262:(y\255:\271\010\2079w\266\342:\227g\375:\371\314\177:\211R\354:\342\246\2459\340\037\300:w\013\375:\323\205\t:\323\030L;\003;D:\000\000\360B\212\361<=\032\007H=\215\t=@\364\355\007>@\352\031>T\372\332>\333\244\232:EP\217=\303n\230\301%T\257?|\363\"=\370\010\211>\372\025\233=\236\370\">W\236;>+\210\367=\253zK\275\231\004\r\275\361[\214\275\207!H=t\233Z\274\307\336\022;\377\2210:8MS:m\035\300:\313W\014;\350\030k:\346\217\177:\246\241\253:\331\264\3069\305\376\023:\212\272\3339\207\021\261:\233W\301:\036\355\250<\271c\273<\312Y\217>g\243\345<22\255<\202\273\234>\2376\200:ehS=b\256\305?\3771\025?\271\005\356>\026\251\322>\005\353\220>\206Uh>OkS>\034\202\304>\305k\212>\301Q\252>\256\"\202>\031W\247>\362\257\267>\214\220\214;\006\226^:\010c\230:\035\315\r;\301\241?;\323\365\232:u}\312:\232\377\200;\007w\2459\002\275Q:\355\013\3719\035\377\377:\221\243\300:\212\235\270Bx\214p=\036\022\213=\235DB@6\375\001>f3\026>t`\346>\221\013\2249\213^\222=\216\315\212\301\'V\315?\030\374\242=\202\265X>;\357\264=\254p\226>\261*4>z\231\227<\337\366d\276k`\203\274\313\327S=t\204\360=\221\316\300=\033wh:cUo:\322;\324:\314\237t;\307,\020;\003\034\273:\207\264\357:\265]\222:\223\343\207:\003k\006;\307\304\017;\234XS:\301\t\326:w\314\200<\341\262\211<\355y\002?Q\024\224<\377\264V<\016\255\016>\005v\2668-\343\270<K\375\030?Z\203\220>\226i\321>\306U\206>\023k\225>\334\354\204>_\004Y>\241Q0>\022\035{>\210\277\\>,\325B>}V!>\215xt>\213\336\':*[H:\213\'\272:\334\201\207;\257D\377:\203\036\271:\236+\274:\347fG:`rv:\021P\351:\356\333\013;\376\2554:J=z:\000\000\026CZ\003p=@\2558=L\360P@.\t.>\247&H>z\200\005?\347\207\2179\274e\267=\347\224\223\301\317Q\303?\365N^?VF\305>VhM\276\201\266\355>\202\013\021\275\310\n\210>;\3243<h0\n>&$\334=\205\300<=x\203\347\275\343Z\004:\362\032\3709\255\200];4B\225;\246\2367;\350\334\222:\3552\212:\261\344\214:#\353\300:1\275\002;8\312\254:\310\230\003:\006\021\365:\010\227\t<\205\305\231;*zk=\214O\201<<\331\031<6\337\370=7`\2438<+\217<\252t\241>\3475o>-o9>\376\340\022>~\0074>\302\241$>\213\r3>g;;>\365\357+>[\275\357=\212!\r>\271\306\347=\261\311\330=\371`o9\370>d9D\247\201;\273\226\210;\206\334\327:{\343J:\352\363;:;\221c:,\212`:\374\346\304:\t,\010;\343U\2329\227\264\240:--\215B\266i\224=\251p\261<\255>P@-\207\020>\327/\r>\300WL?\312\201\3059f\226\004>\340B\235\301\365|\270?\2114L?\374v\322\275\253\030\230>H\243\233=\035\337\004=%\327\232>\331\034\324=#\325\227\274(\311\020\275\226]9>P\257b=\346\302\004:\365\212\t9\206o;;\332pp;\254\335\342:\274\014\306;D\371\261:\225F\257:\353c\242:\224%i:\365C\253:w\323\025:\236?\030;<\341\227<o\026g;\254_\031=nt\306<\242\320\221<\225\345r>\224\217&9\201r\032=\3202\260>b\312\302>q[\334>\273\266\035>\357\003\215>;9\201>)~b> \227t>\3012\256>&\327\207>\2474\266>\326\346r>\331\234(>\341*\":\343\211\2678/\366];\032i[;\366\334\352:\003\013\005<\365\243\260:f\204\277:4\265\345:\377\335~:\211\245\226:\037\236\':s\271\007;\000\000\360B\351\270\014=_\'\261<\372\206I@\3349\374=\'\245!>\342\007;>O\236\212:e[!=1\356\246\301)\243!@J\275\206>\351\251\260>n \"\274\243\364\262\275\354\354)\276\3148\240\276\010\024\031=\315\246:\276z\020\000\276\367{\272\272\025\017\214\276\032;S:Y/\245:\037\372\3539f\177P:\237\251\3449\275h\351:\243\321\250;\004\265\324:c\236\372;\271w\241;a\373\270:/F\023;\366\305k;e\236)<\224\334{<\351\272\376=It\321<\'\250\205<-C\344=\303K\3639\200?\253<\323\273\314?\277\034\341>\331\276\277>\272T\236>\210\343L>\276\237\213>jn\\>I}]>\355w\277>-A\245>)\364\242>G\351\255>f\016x>Y\014f:)[\367:5!\3719\327\265\267:\271\261\027:\336\003\215;\014t\377;\223M\275:\343X\021<\206\307\372;\237?\027;@q);\240\'L;UU\005C\304W\205=64 =\203HN@\253\210\327=\r\337\342=\347$(?f6|9\211\201\337=*1\214\301\263\217U?f\324<<a\313Y>\033/\226>\250\232\t?\322\201\n\274mB\020>\177>\232=\270\003\316<\277\261m\275\320\036\027=\245;G<\341\344M:\260\021a:\257\010\276;FB\201:j\227\177:}\222G;\317\242?;\255\250D;\275>\245:UH\r;>\2701:3\013{:Y-\026;\033\320\000<\273F\357;>\266\030=\305-\304;\334\260\035<\204\243\010>\236\032\1778\330BO<W\"\251>\253rI>.\206w>\210I\035>\372z\347=\335E\031>\323\003\361=\334\354*>\3339\036>:\3431>\366vT>\032\230+>~\251\t>\003Q$:\221\210\210:\213{\331; \355A:(\346*:\027Q\331:K\203\352:\212|G;\177\343\202:\364.9;?\002\3419f\317U:\246^\313:\000\000\026C\254\303J=E\004y=a\325K@\324\336\017>\360\316.>B\t\216>\013\331k:\250!n=\024a\225\3018\267\320?\237A\023\2772_\001>\257p\321\275\303ar\272d\211\003>j\363\036>\tZ\000\276\3172w<\244l\240\274\n\215/>mRk=\030\364\3009\035\322\2729\002F5:\367H\002:\252(\032:\017\036\2569o\034v:\221\336\':\250R8:\223\0248:)j\225:l]\373:\n_\204:uQ\210<fA\342<R\374\336=\242\225\274<M\254\030<\2555C>\240\022!:[\325\250<\022\025|?&\321\366>\273\212\001?`qO>[L\202>\304\\~>4\302\243>\352\276\204>\032\302\200>\267\336\211>J\355W>\366e\224>\262:\243>:S\014:r\334\2609#/s:TJ\017:\310\212\001:\201\353\3419\370\355\244:\332\365w:H\325I:\215\340H:5\202\003;\223\206\257;\'\273\272:\000\000\026CMe\r>\245\027\377<\023\354R@a\264W>R\"\'>\346\r\304?\266B\2768\014{\201>\354f\232\301\376&f>\257\343\260>\177\350y>\214\251\232;\3267\256\274\271n1>\210\346\230>\372\365\276=?\341\222\276\221R\262<\255$\252=C\226\033>\360\232\3779\207\235\':A\\\332:\225 \327:FT\222:H\025u:+\215=:+\330\032;\316\256\202;7\261\331:\010\210\314:k\225\222:\316\311\306:4\026\t=\242\302M;\001|\200<\243\273\007=\\\204\363;S\330\262>\r`\0108\307\266N=\277a\347?\017\377L?,3\314>\332\006\213>A\374\014?\362!Z>\227sq>\0358\316>\241\226\025>8\'q>^|\356>\006.C>b\373\253=\342\313\2409\322x\006:\021\324\271:h\243\344:z\241h:+\306A:#z\n:B\2553;%\271\264;\202\247\331:\320M\246:z\323\233:|v\252:UU\005CPj\346<\214\206,=\036vF@\211\315\307=\r\032\032>p\305\014>\340sc:|b\004=4\271\227\301\030\327&@05\366=oUo>\3664\206>\303\200H\274\212\377\222\275\311]u\275tK\224\275\357\356\233\275S\335u<te=>q\354\n\276X4\346:zI\035;w\224\353:\"\274\005;\277\352\373:\023\202\351:~\356/;\177F\216:yr\026;\000\220D:N\244\261:\221\326\037;\031\277\r;\273\340\374;\022MA<\212\222\367=\"^\211<\307\336c<V=\265=T\350\2529\225/\016<!\"/???\303>\231{\327>\260M\206>e\276:>\343v@>\305\346g>\253\211\230>\322\346s>\253\210\206><\374\241>\307*\224>$-u>\233\225\000;\365$\277;>~\001;UH\007;\223\035[;\341\366\n;+_Z;m\374\264:\313{\213;+\322=:c\311\303:\021\302%;u\027\347:UU\005C/\324\270=y\356I=u\\O@\326:*>cv >\261yz?\247NY9\302\211 >\3320\216\301\303\266J?\232\354r>\273M\253>7\023\231>k\235I>S\326\217<\276\331\271=\013r\236>\206C\007>\022\002\350\274\251>~=\331%\312=\370?\351:\356CU:\304=\016;\320\335*;0\274\313:\033\306\273:\n2\232:|\276\202:v\177!:(S\017;a@\236:\002b\005;\261\036\356:zMY<\333\250e<\035\321E=\025\332\207<\335\244L<\331BK>\317B\2338\276\343\333<C\300\273>\323\026}>\001\260\216>\351\255\223>a\350\203>h\023|>}\\e>N\366R>\374]{>\021a\216>.S>>\367\251l>}T\014>\014L%;\344c\246:t\017\367:\240\202g;\t\010\310:\030\367\013;\332\034k:\251\354\232:W\343!:\234\333^;c\241N:L\022E;\231\031\221:UU\005C\r\347\243=?\321\252=\357\0009@o\201)>\37436>0\250\"?\035BH9\256\357\320=\032\017\210\301\366\203\302?L\347\312=\377c\362>\210Q\206>q\242\261>3S0>\341\235F>\233)\327\275\324>2;nl\356\275V\226\374\274V\341\013=\014p\311:\n\304\303:kB};\03406;:M\026;$\022\251:oT\223:\360\007\273:\tP\263:\266\361\210:\323\251{:\r-\261:O\212\241:\\\031\253<\r\336\206<\364\330\354=\275\206\231<\260\007\360;:\010u>55\2308\267\237V=\355\027\230>\261\342Z>P\326;>\206\342\032>s\036:>CS\363=\317\235\r>\016m\000>\265\223\031>\363\256\007>\304\327 >1W\374=\014]\366=|g\231:\227\272\236:7=\006;rg\257:\022(\242:\350R2:\333V\035:\336\205S:\205\261\212:m\212\030:g\311\002:E\240\214:\327\\\3739\267m\253B\347\024\312=\217\320\322<\211\236I@\\\3740>\005V(>>Mt?\255[K9 \245/>\221\240\225\3018H\273?\2764\263>i\003\224>T\220\207>\r\253\206>R\000\260>\235d\311\275m\252\247\275v1K\275\334\345\'\276ywD<\353\273\362\275\326&\364:p\321;:\340\275^;!N\004;w/\327:\222\254\017;\270{\272:`K#;Zn\317:\004R\301:\035\366\000<\322\376q;\000\326>;\371>\300<\236\252\270;\367\203\255>C\365\272<\273nN<\324W~>\276\361\2458\\\tm=\277\253\257?\274\255l>\262\236\251>\271\245\206>\300\323q>\230\352>>l\252(>\370\347C>\235^\304=i\360\035>nt\376=KJ\016>\034\032\313=:g\336:\2676\013:B\332\213;#\\0;\003\261\245:\302\302\267:\266qv:\333\032\311:\360d\327:\222eV:\253>\003<\250\377F;\245\255\360:\000\000HC\273\321\256=\222\231D=%\363M@B\261\004>\355e\003>1nc?.\310T9\272\211\013>\370\254\213\301\347\3067?\253\247\265>\032\367\010?\263(\260>\262)\211>v\372\313=\001,`>G\312\000\276\241fJ=\240*\335\275_J\336\274M\372\323\275\331\374\302:\361ri:\252\250(;\221\036\326:\351\362\305:\204\266\016;DB ;\340\256\307:;L\014;\314\032|:\375\363\240;\352V\202;\233\324\t;\260\362\032<\335\267\226;\tYJ=\215\032\360;@\026\301;\036\326\341=\375\"\2038\345\334\207<\037\032\301>\356kk>=B\027>\253M\035>\3137\023>W\230,>\241\0161>\300/;>\303\270~>\021;U>\245QX>B\t\020>\244F\010>n\346\242:Ij9:\002\355*;>q\213:\221\323w:\341\304\270:\t%\324:\306c\200:t{\324:\204S):\204\370\234;\267\350\253;\352!\306:\267m+C\000\251\204=\341\366Z=_~R@\034\362\353=\305\341\373=O\377 ?\251$\\9\275\301\342=#\252\212\301!\304\242?\234\365\243>\306\212\300>{!\211>)=\225>&\201\020>q\320\303\275\315v\276\275\347kQ=&\235\004\276Tc\177\275\244%o\275\261u\233:\330\310\367:5\241T;\205\326\246:7\276\037;a_\221:\213T\031;F\207\213:\256\264,;9\032o;\366\243\017;(\tW;\242\300\000;\326\\\222;H\326\271;\216nT<\330Z\253;\306\017\365;\246O\217=\316\306U8\210Sg<\356\267\244>\177\202\326=\226\355\226>\275\303L>\361\321P>\345\251\372=\274\316\342=v \201>\346\335\371=\272\356n>\356*\277=\023\205\000>\023\261\224=\244\222<:b\246\301:p\223B;K|O:\220\261\336:\203o\r:+z\277:\366\333t:/M\210;+\346N;\235\r\322:\221\273?;x\032\220:\000\000pC \0025<\265\265\324<\227T!@[\371$=l\266\327=\231\213\t<:\035\372:jW\226;+Q\302\301Z\355\032@\276F\225=\215]\211?\255b3?-\245%?\331\034\226>\315\244\322>T\004\010>\377n\202=r\346.=\\\021\027>\"\275h=W\267U:\0022\2649\215;\272:\006\245\003;\317_\031:\306\336\235:2\242S:\226\341%:/\345\231;l&\252:\032\325\2679\177+\3429\221\225\305:M\246\233;\362\205\271<\323\007\315>\374/t<\215\027\337<\002\226\022<=\337~:\270t\363:a;\213?`\2017?YH\377>a\332\233>\355\356\317>\026\n%>\221\031G>\003\331\366=\207\204\305=\300SE>\307H%>\037\301\277=\370\273\343=\030Q\031;4>Z:XL\023;J\210\204;\251\347L:\344\246\227:\2231\351:%kU:W\005\022<\365\374P;w\235\3719\242\"\201:\256\323\036;\000\000\310C\347\'\221=\341\033\"=3\276K@\342:\033>\366\312\034>\331\\@?wG\013:s<\t>\245\362\226\301u\367\337?l\200\221>\232\220\214>\177\234S>\306\225\276=\337\331\031<.\3166\276\371dc=\265Hf=\027C\241=\271\021\236\275\236d\344<\033U`:=\241\264:\347\270\313:\231x\213;\311\367\024;\t\271.;\256\'\177:]p\010;\340\246\250;I\031\306:\332\272\025;\007\t\371:\360xJ;\207\355\340<\246\3568<\006\266\007>\004\254\005=\022\014\322<$\321\304>h\347\023:\232\\\211=:\032V?\007.\262>\220\223\214>\037\366\257>\344s\225>\027\303S>\270yY>\224\303j>\204\241\207>\330ma>\301\377V>OJi>\266\220E>d\215\210:\212!\n;\334^\354:\277z\220;\010\2326;\337\324\261;=\305\235:\215\315f;\317d\360;\350\270\345:\2771\210;\002\363\r;\272\373\005;UU\005CV&\177=*c\030>\322,O@~k(>\232\206=>:\033\350>\000\275\27198\000\215=\035R\206\301WN\313?f\003\254>vuE?\373?\213>+yH>,\244c=\251\256O=\366\326\300;*\2556=\227\320>\275\204\226\270=\332\207\331=xP\021:BY\3649\306\021g;oWB;\234\365\216;,\303\352:\310\260B;\273T\361:\270\\\016;h\021v:yEO:\010\231%:\213p#;\020\271\\<\353\337\005=@L\301=\017\253a<\031\017\350; \371\037>\017\232\3418\362\337\336<\323\312(?\205\263\335>m\340\262>\320th>\336\247+>\006\022\204>\263\3564>\323\210C>\242\004Y>\214\217\207>88S>\263\264R>0\002U>\363\317\021:s\374\3759\260\003\';\305K\';\006\305\374;\227\200\254:\002A\256;\205\036\025;\237T\037;37b:\2066W:K\300\014:A\302\004;UU\005C\022\335O=j\341\233=\376{N@\002\302\010>E\357\027>\367\347\373>\320\235\3709\273\213\231=s\016\222\301\006\362\235?\247\253\032?\220\220M?tK\321>\375CJ<\2571\316\275x\343\310\275\030O\306\275{\367\262>i\255\304>\214X\304>\323|\\\275\014\031I9\024\035\3639\200-\203;\263M\250:\355%@;\246\035\361:\007\307\323;\271c\315;7\302\313:\3001\230:\t\025\2559~W\037:I\013K;j\222\214<\214\335\227<\256\034b=o\020\245<\2534I<\275\251_>\216\277C9\262h\024=\217>\032?6<\266>=\376\005?\263\031^>\033\360\204>\275,m>\325\356x>y\234\220>\224.\210>\033\327\243>,[\322>\004\337\203>\223\305\233>\237Z\n9\307\213\021:$\252\210;8\332\213:L\200G;\306B\310:\\L\251;\363\234\302;W#\315:H\356\271:2\002\2279S/A:cF\312:UU\005C\372~\202=\216\230\302=\0019R@\032\234\026>\345\260->m\313\004?\266b}9i\360\250=5\347\205\301\025\262\366?\364\305K>PK\210>\010\265N>\335\nj>q\257\277=\311\366\340<\360\300\264<\\\022\325=%cO=j\017\255\272\325\250\032\274Zm\322:\271\352<:\036\224\270:\332\307\204;LE\230;\300%\360;\005VG;\256d\352:6\306\244;\274L}:(W#;\256\301\274:\002YU;\236\242\021<cNT<k\377\257<\020\230\021<\276\246\031<i\372\353=\216\017\2338d\034\314<7H\232>\214(u>\355#c>x\312)>\005\177E>\333*\036>\307S\t>\254\333\333=\320\2342>K^\371=\301\220\013>4F\365=\255=\355=2\371\234:\030\201\3149\203\306\263:PRk;0\004(;\035+J<z\3205;\216)\336:\374\262\314;/\320H:s0\020;\213\234\224:\373pU;UU\005C\306\207x=\275\235\276<1{K@\274\260+>\357\3733>\225&\005?\362\364\3049\354M\241=Z\004\237\301>\256\254?i\004\252>\313\275w>\353)\021\275\035\0212<\254\\E=\255\225\232\274\251lL>\363m\037;^\357c>[n\224>\244\036\251>\003gE:.v?:\366X\017;V\004(:\321\267\212:2Q=:xEl:s\3248:@/\2559\023.\220:\346+\3009\266\242\3319\250\256[:A\336\214<\313\370/;\261&\225=>v\230<\351\301\037<\007Y\034>\202q+9+\342\375<:eP?-r\244>,\313\032?\255L\317>\271&\204>\177\276\214>\t\372\212>\366\035\302>\267\343\254>hO\246>a\376\266>\232\377\277>\252x\217>_\316\014:\361\342f:\260\373\336:\324l\000:-M\035:\\\0376:\277\250]:\344\323\317:6]\2049]\332\020:\\\217\3559\240\344\026:\226i\3749\000\000\360B\315\307a=\231\017\305=\305\210S@\273R\373=_\246\r>$d\013?\037SQ9\330/\272=\366\313\206\301\007_\320?V\034\021?\te\311>\301\026!>\272\251\234>\347\020\007=\240\024\220>\300\207C=^\345w>^\334\203=n{\r\276\371\201\316:R\235\372:\273\032\366:\347;\375;\036\374\004;\327\0058;\245@Z;E\211#;5\246\020;\1771\353:U\354<;+\n\245:\2578\311:\016\'2;\214`\242;r4\363;\367\304\n<R\311\300;w\016\214;H\335\245=\000\247?8\020!~<4\335z>+\023->9\232\014>rx\321=V\217\376=G\305\342=[\r\341=\247\300\274=AK\302=\223\210\236=q^]=\010\307\324=Q\000s=\020\271\302:\337o%;0\270\343;\243\325\314:\362\341=;\310\313I;QB\006;\204\333\335:\035\307\214:\345\tO;\014\203r:;Yy:b\224\334:\000\000pC5\005\251<\265TN<ZA>@\331\250K=1\327\331=\363\270A<\342U\225;\306\324\354<\\K\276\301Mar@#Hh\277\3012\267<\344v\240\276W\215\276\275\214C\236\276:\030\025\276\334t\003\276\020})\276\253\217\225\2762\274\213\275\340\326v=n\024\":\027\"}9\265IE:\320\365\006:8;\33795\n\2039\376\203\2429\234\351\3639\026U\3579\370rF:CQg:\336\030\203:\213\2126:nS\265;\032)9<\317\323\267>\313\210m<\034\253\367<[\0378<h\033\034;R,\"<\252\001\003@\211d_?\305\315\347>\376\217\337>\275\375\005?\376\235n>\330\374\234>_\231\255>\201\t\240>\355R\245>\256N\246>M\005\261>\rH\206>L\310J:\013\343\2069\327\267|:\017\223\023:,k8:\002J\2119\005\264\2749\366\303\033:*NC:\256\324{:0/\275:2\233\312:\233\243\3659\000\000\226C0<\321=\227\2017=\213rK@D\3144>\275\3513>\226Am?\227&&9\322\352\016>\221O\216\301JU\214?\260\000\306>tq\022?+\322g>Y\277\231>\007$$>\340\351\004>\"tO\276|\233\351\274\313\354\031>\020R&>\024%\216\274\205\225\324:\352\335\010:\316\014_;*\227\351;\355\251%;\222q#;b1\r;\3066/;\367f\333:S4\275:\202l\325:~\274\034:;E*;\207\331\003<\005\343\\<\231\233\304=\253\0163<;\251@<l\342 >\335\341\0238\350,\305<\035\'-?\245\254\237> \335\231>\352\203*>Ck\035>03*>\366\235\374=\002\216\020>\273\360O>\302dD>\227\2512>\375\253\316=15\303=,\374\272:\245u\2359k9\232;\320\367\372; \217\326:zx\372:u\350\317:d8\275:\300\022\263:\342L\245:t<\335:Gn\034:\304L\376:\000\000\360B\257R\372<\025E==\212\263I@m\n\343=\346Z\026>N\033%>\271\256\010;\200\340\203<\354\206\242\301?\003\023@\376\234i?\'\360N>K\364\267>\017\207\201>[46\275\365\361\035\276\030|$\2761\301)>\320r6>\341M\345<\356\027\223\276\344C\016:\314\024\2069\225>\216:\202\327>:\211\264\371:M\227\373:k$\320;\240\231\312;\220\235<;[\231J;s7\311:\256D\332:[\002T;\214<\254;\221+\363;\217b{=\306\301k<\271\037W<Gj6=\030Ou:[e\342;\255o;?\252w\241>H\027k>,\204R>\260\377O>\220\345\031>\276\274Z>\301\036t>\177\202L>9\272\247>r\270\305>\2457\265>\005\377m>\344\320^:\312\257\002:\272\361\337:\332\341_:\034\271\213;\361n\373:\301\377\262;\327\224\301;\220\211.;\271\037?;L\325\003;\352$O;fM\306:\000\000HC\342`\005=\300\370\'=\202\231O@b~\006>s\0253>W#(>\332\232\240:\030]\351<\311}\233\301q\263\026@\366\372\262=\373P\036>\323\014\212\276l\\\253>Y_f\275\224\347\252=\266>\024\275I\374l\275^MH\2761\221[\275(w$\275\335hY;\230\n\021;\207\016\032;+\000\230:\010<\236:\306\023{;\234a\206:\003g\t:[q\3269z\231~:A\0105:\2262n:0z\021;\034\252L<\302\302;<\266`J=r\027\345<\324\250\204<RH\301=\255\302\177:*?\016<o7\216?\214\033\211>\221\257\252>\232\356H>k\336\200>\262iW>\371e,>\375\nJ>l\"\214>\213#\260>\017(\251>\335\355\206>\314\276m>\210\002\376;\037\264\032;\253\212\022;@U\224:,\373\267:hT:<\220\001i:W\341\3709H#\3309\301<\n;\276yR:\311Z\206:\014Tb;\000\000\026C\272\324\226=%\253\237=\320\022Q@G3\022>\260\264\036>\216i9?\267\336\2019\347p\347=\241\235\206\301\244\201\252?\212x\354=\254rD>\'k\220>f\r\036\275\002| <\026\3565=\177#;\276\255G\n\275\363\005O\276\221\2439\274.\254\323<!\252W;O\253\233:\013M\013;CTE;\013\035d:Kr\266:j\263::\267,M:A2\315:_\216\237:#7\001;\305\361\236:\005O\330:\252\303\001<\332\371\215<\243\310\356<\363\014\014<\010e\r<N\036\021>\232%\21780Q\246<Y\027\005?\010\367x>\010\372\271>!\371\'>\322.7>\210\014&>\367\232/>>\224\376=\313\326,>\\\315\023>\247\302\371=\307\376\332={m\000>/S\217;k\020^:\242\231\036;[%\007;\221g\037:\023\335\251:\370\235\3259\022\373\036:\324B^;x\350\234:\022i\365:\221a\214:\360\334\245:\000\000pC63\256=#(6=\342\215L@0\356!>\276L\037>c\373G?\232\225\2359\352\365\013>i\320\220\301Z\215\r?\235\t\010\277\371\275X\277ER\211\277\204FZ>\265/`\275h\247\254\276\266\013\215\276\227,\004\277\270\037\004\2776\351\016\277*M\216\276\017(^;\000\337\213;\202W\020;\32547;B\005\002;\351x-:qj\203:B\r\275:4uu:\312\202\226:^P\334:\372\360<;\346~\034;\246\245\342<\026\277\372;\240P\211=\321\027\000=3\372\243<\303\206\274>\303\317\0029\306f\217=\031\315\257>\355\200\323>T\322\005?\243np>r&\251>-\036\230>: N>{\362k>T\237\213>CE\202>\265sP>\321\302w>u\354\232>\252\257{;Ag\221;\311\207V;\203\215{;\340U\200;\266\256F:\333\307w:\241\236\235:4WS:\037\256\207:\214\211\337:\251cN;\272\214\313:\267m+C\333LT=\311\337\314<\347\214F@\022\367\240=%\203\236=\374\200\004?F\316\3579\347\356\332=\3076\224\301%J\232?\233\365\306<\272\220\003=u7\251\276\321)\226=\rV\253=\263!\276\275G\237\201\273\340\225\225\274\323\331\243=}\264\251=\3268\006>\240T\264:\247\024\324:\256\205\220:\000\017l:g\356R:E\304V:2\313\005:\216\017\006;\275/\374:H\244\2119\'k/:\253\260s:G\256\213:\235*n<m=j<\017\225\016>T\277\202<0\337e<\372\365\222>\304\037 9S\340\013=\331+D?\002\236\333>\247l\275>\224\365u>e4T>b\004<>\236(\022>u\251,>\326\242(>\001\313\r>7\010\000>\256\3717>K+\014>wr\200:\003\333\370:\262L@:5\0070:\273c\236:\305\262\200:MS\3059\267\027\264:\020\307\322:\222\337<9U\3140:\227\274H:\372]\3449\267m+C\3545[=B\272^=\210\353M@\260]\034>\255\314)>`v\353>\316\235\3239\353w\232=IZ\222\301\013\r\371?\360ZW>\207l\251>\253\367\033\275j\373\250=\177\235<>3L\023=\203\377\"\276\332aU\276\352\263\240\275&\217\266=T\024L\276\216rt:\207\036\332:\017\346\002;zL\305:`Zu;\214\243\036;\314\217\350:l?\000;w\021\242;V\000\215;\344\010G:\027\377R:\225\277;;\336\250\263<\233P\242<\310\333\311=\223<\337<_\223%<\035x\201>\034\316.9.\367V= \222(?\304\006\212>\244\276\331>&y\225>\210*\242>D\307\325>\207\371\253>\226\322\221>QYX>\237\317|>\275f\207>\274\001Y>\311\246\036>\006\372\235:\351OA;\\\3255;S\345\270:\0359\210;\355\002l;\360\330\363:\277D\017;\324\357\216;\204p\361;\336\233D:\026\312\223:\361?\371:\214.\332B%y\221=c\212\235=\317\346P@\222\271\347=\230\337\000>\036)8?\277\342\2769\343\t\363=z\005\211\301\343PG?YK\021?\234\025\212>\334#\262\273\013\205C>\237\025\034>\353\244\226\275\3721\341\275\215XD\274Q\342z=\001V\272<\264@\312<\355B\t:\"XH:\242 \324:a%\016;\356\023F:8.\027:\206Sb:\334\224\354:%\231\374:\231c\321:/\216\033:\213\2665:k\\\225:i\300m<P\366&<\020\340\206=\024\026\364;\002\\@<\376\330]>\371\305\3728~i\301<\242\261\t?\361\006\304>+=\226>\260\213C>\322\311\005>\337\317\016>\024\237Y>\034zv>Z\213f>X\276\212>\211\022\240>\246\023=>I\275+>\245\317\3059h\230t:7\345\022;\022\n\023;(\242\":?\257\023:\361\t.:\353T*;7\r\343:us\346:\234\262::\355\"@:Z/n:\000\000\360B\355z\254=\342\0101=2\321P@t\361!>/v\035><\tL?n\023=9\243~\017>\273\225\217\301#q\332?\276\256\010?;0\261>\362\337\254>\316O\344>TFU\275@Ps>\207P\371\275^7\032>\340\343\210;w\246\211\275\352\001k\275}\274\252:Q\222\200:\216\373\340;\272\2029;Q}q;\251\024\325:>\2120;\021\304w;st\023;\032\375\340;\341\340\007;\345w\317:\350}X;\202UX<?I\264;\301\271\360<\025\023M<\355z\020<n7!>\371\030k8\260\003\'=\014\001\213>\265h+>a\365\203>\346R\025>\377\210b>\367\036Z>\374q*>v\0311>\251g\034>\217:\003>(,\001>v\306\004>O\226\325=\"\307\216:\372\247l:<4\361;4)\372:wB\200;PY\244:\260|\027;\335\252=;\016|\002;W\223\373;\010d\333:\324*\325:/Q\021;\267m+C\331\253\304=M\023\036=\200&R@\204\260&>\263\234!>\000\250\204?x\217!9`H#>\376\346\215\301O>[?Vo\307>\037\370f>H\213\020>6I{>\'\232 \2752\214\356\274>\231\210=w\371Y>\300w\034<-\r\311\275\311R\364\275$\022\304:c\030w:\352\006\024;\036\025b:]8\220:\365<\250:\306\271\221:\375@\002;\\\346O:\324\2451;\027\032\205;f\224\005;\340m\340:\374\260\002<\024n\323;\344-\347<\214m\250;F\003\200;\207\216\351=]\306<8&\214R<\263r\304>\'BM>czc>\324\365/>N\004\371=\310F\264=W%\371=\261\206\n>BJ\032>\301U\n>\375\313\343=\225\244\035>H\266\307=w\377\230:\002m\030:\020\267\014;\030\335q:\373\212V:\333=\375:\326e8:\271\223\363:\037\377\030:\300\233\203;\213\377\222;\360.\360:x\354\263:\000\000\026C\324\257F=&O#=\322\024D@#\333\005>UG\'>\255\361\210>vd\2749\336\2264=P\327\231\301\333\226\354?\037\235v\276\345\210s>\005\276G=\363\234\267>\223I$>\021??>?f\243>\277D(>`L$\276\204\010 >\304M+>\\\330\000:{\212\201:\302K\256:\002\265\216:\026l\302:UaY:\033C\3079\256\223X:+\355\224:+\353M:\272\0178:\251\002\2339\261\261\212:\333\370\034<Lw\234<\377e\233=\033\243\205<\330ur<\017\306\274=\3255O9Y-\200<B7\221?h`\245>Q\376\307>\004\343\246>\022\234\264>\3648\214>e\023Z>\332\260v>\035\366n>9&\\>\330\210\210>\215\n\026>L\3254>\003\373\':U\353\327:^\345\201;h-\353:\204\361\352:\224,\235:\247\030\26799\335\344:=\004\235:\324,_:3\337\022:\305\214;9-\231\233:\214.\332B$\024\030=.i\372<GkG@G@\245=\341\356\333=\034\264\211>%\330\256:F\244\207=!\272\235\301o\\\345?\303\205\252=\212\255_>Uo\033\276\204&\361\275\237Q\201\276\343pS<\260\021\202\276\262<\000\276\374\374\374\275@\242\350\274\253\257\013\276\212\000\264:@\246r:D\272Z;){\202;\002\027\217:5\335\237:\221\312\251:\356\361\303:fA_:\rI\027;\267\000p;0V\003:?\301?;\236\347\357;\002S\317<D\245\231>?\006\r<\'\023c<\247\376\372=\353~\026:\3575\277<$T\252?\221\317\351>\210\214\036?\301\374\212>0\274\236>Z\304\261>\360h\254>\354v_>\267\300\235>\224\305\316>T\222\227>\232v\251>\273/\211>\014G_;\377d\364:\"]\266;\230\354r;g\017\357:\303/\024;\352\376#;\336\n\024;+\247\222:\260\327\272;kc\362;\"\265\030:\341\203\031;\000\000\026C\222\321\230=`\323t=\031\205N@\215\001=>\026\375<>q0)?\324\202\2229\302\223\333=\005\271\217\301:\317\327?}Tq>\347\242\313>\352\371z=\364De>7\237\001>,\027\276=L\004w>\300-a>\352\r\231<\223\306\201=y\325\313\274\373\312\277:\242>B:a\252\032;{S!;\332\223\270:it\225:Qg :+\263\010;\227@\3759\013\375A:l\302`:\275\256[:\257\201\266:$\216\213<\351t\r<\216\223t=\203\365\206<\004\213\357;\260\021(>,o\2478\250\263M=qo\333>V\306Q>8\246w>.\345\201>\225u\'>I&1>?g\333=s\263+>\032W\360=H{&>!\037T>\222\214[>\002\243!>k\036\274:\302\264q:s\221\r;j\341>;\226m\341:\200\266d:\022\032\002:?==;\002k\3429\350\235!:,/-:d7w:P\365l:\000\000HC\322\314\231=H\332\332=\257\022R@\017[\'>\344f2>pT-?\255\313\2009\014J\333=\237\"\206\301y\316\257?\301{\256>\257>\262>\324\306\230>\201\034W>\223\303\037<f\242%<\342\364\022\275u\345\271\274\367>\220\275\213\265x=pv\232\275\374n\n:\205\332+:N{\224;\337LM:\237RK;\224\002\267:\371B/;2\001\245;\303$\341:\323\277\217;\"wL:\027>\333:\317xU;\323Z\010<\255\366\377;\233\236\206<1\332w<\225mF<\361J\345=}b\2348\225nX<\230ZB>\336\0268>\276\355\215>;\360\367=\0261\372=\220\026%>\242Z\026>\353\033<>\216C3>\014\3639>\376[6>\236H=>}t\352=uK\3279\265J\024:\300\337\327;0\t\3329\346\351\334;\351\255Y:l\244\204;\206\207\031<6\241\204:\274\255\234;!\000C:1\256\343:\344\266=;\000\000\360B\321\\\255=}\233\257=?\366R@\233\236\">\032\230\036>W\377e?n<L9\2214&>\376m\213\301\2035\240?\226J\023?F\213\316>\250\324\373>F\247R>J\371L>l0s>\347a\035>\262\374#>\334\206\341\272j\237\202\275\243\272\275\274\371}\215:m\002\3349\217\033\274;\343\254\r<\275\177\035;9\032\332:\266\303o;\025\372\203;;\326*;D\3629:<\024\264:\316\177,:\rI\213;\372 \007<\220\312\360;\273hG<V+\235;-S\277;\337\361\310=\376\375i8\010Ie<\212\254l>c\357>>N\331\362=\350\344*>\213\025\003>;q\332=N\216\370=\3660\253=\234O\366=\216\177\360=h\314\311=\324<\274=+\001\254=\250w\346:\326\365\2339\304\303\251;\353\002/<V@4;\372W\317:\257\301\257;\200\204\254;\254\024\254;\213IC:\237\016\373:*\000\025:\374\346%;\000\000HC\243\035\226<s\274\302<\305oK@\217\333H=\313X\320=\010]\214<\206N\n;\331:\000=+\356\251\301 \340W@U\036\204\276\342\217p?0\"\'>a\356\006>f\3265\275*,\001=giN\275w%\271\276<\344F\276]\350\241\275<\264\365\275t\350E:\326\246\357:u\375\227;\306\212\257;\036\346_;\235s\262:\205\375V<\007\010\233:\\\351X;\331\325\226:\022C\367:Z#\002=\267\0262<w_\306;\215,D<@m\317=\306\267\024<\227-\275<O\264y<\302\334e:\266oS<\217\001\246?\227.\032?e`\340>\373!\310>\217XV>}7s>Uhe>u\006\214>\022&C>~\205m>\244]\221> \001\223>\014\374q>G\202::C\017(;\330\354\220;YE3<\314|\220;\023\327\252:$\326L<\214\271\212:\"\267\201;f\313\360:\024N\000;\207\234\016=\200\373\013<\000\000HC\235W\246=\241[\260<\325\002J@\262V/>\276\3124>\255\260C?\256\357I9,\004\006>\032&\226\301Hn\311?\016<?>\237>1>\372\225m>W\277\034>T\021\365;\037p|\274\327\007#=\346^\020=B?\271<\221{\332<\0221\220<\335\023\313:\222W$;\315\2146;`\314V;\236}\333:\255{\353:n!\376:\325\226\313:i\025\030;\2011\257:\250\352\335:H9Y:Io\321::\304@<\351\014\276;l\255\352=\217\215o<\020\351\013<\247\353\031>}Xs8/V*=\370^\t?\t-\237>\273o\236>\346\235.>>\035*>\373\246\007>\246@:>rv\026>S#[>\256\350,>Yd\026>\037*B>\004V\022>x\304\244:B\304D;M\302\337:~\203\000;Z}\276:>{\361:\241\376\310:\257\240\242:\237`\";&\031\216:\\\036\272:f\006\':\304\004O:\214.\332B\304\216\257=\242Ur<\025\221G@\205B\033>\357\306\024>E\027w?\314\332+9p\230)>g\260\227\301\252g\254?Q\006\236>?\034\'>\204\373B>J\266V>`B\202<\234\206\020\274\243\331\036\274n\305G=|\'\235=\305\224\t=\236\350.\275\270G\373:\013w\032:$j1<\347\347\014;\'%\206;\340z\r<\216p0;E8\345;\231I\363:\032`\305;\036q1;\007\230Z:Y\034\226;En\264<\360\210\206;\325\235\016>{t\303<\343fL<\317\337\242>3\201\2628t\201V=,A\035?|yF>\252j~>7\255+>\001\361\327=\217\333\340=\241}\n>0\376\\>bD\027>\271L\032>\"\024\030>\0109\344=tR\307=`>\251:\246\317\2659!\255\002<(S\350:n?H;\376J\273;\330\217\025;\020$\310;[d\327:\362\237\307;\323(3;-\267\3569\317|\377:\000\000HC\306\225\236=\3213\013=\362\036Q@\206\377\025>\261\305\031>\370,@?\302\013w9\013}\t>l\301\223\301\223s\344?{+\260>T\n\375\275\3222\220>(v\261=\327-x>\007\226\220\274u\250^:l(\373\275f\0076\276\211#\205=\357+\312=`2\230:\330\250\004:a\270t;sf\245:\257f\363:\356\031\227:\223\243W:\362\220\333:\250\021\224:\365u\323:Fw\251:\233rH:=\032\254:}n\032<\307SP;\214o\335<\370\0338<\327K\364;\217M\364=n\216w8\225\257\316<H\233\243>\311C*>\275\221\215>51\022>\335\326+>\235K\324=\2569\000>\337\335\t>\340\010+>r\376\032>f\355\t>\247\373$>\252( >u\\`:J\036\2509$q);\213\336\226:\021\302\335:\316\004\3519\373\354\007:\347U\310:[\032p:\260]\247:\253\330\254:\342\345\027:\210\262\031:\000\000\026C\352\350\223=*\303\271=\325\274J@dN\">|j/>\251Z\034?L\301@9g\"\317=\035:\207\301\336\301\302?eq\242>C\252\346>\326\235\245=\370\230\213>KO\267=*3\215<\333\260\214=3\244\360=0\371\340=\331\217r\273\316\342^\274\242\275\014:5\207::\315t\035;\356mX;&p\r;R\205\001;\342\010\265;Sp\230;\321\375\267:\352\271\237:\253\340,;\271o@:\206:\017;\024\377\211<\322YN<\323^\215=\361\373\302<\tIc<\246\230.>\342\270]8\351F\037=\212\220\332>]\017\200>\000\215\213>>G9>E\322\275=\356\300\n>\332A\256=2*\211=DW\271=\304\211\320=\031o\333=*G\236=\002n\277=\313\026\2009\227j\016:\263\276\271:\241L*;\271g\301:\315h\220:Y\360\211;\250~g;\215.\203:\027A\210:R;\032;\207,\3759H\335\214:\000\000\360B\033Iq=r\242\321<\0143M@\300\227\371=\215\316\022>u\277\346>\247\226\2309\243m\252=e\014\223\301\317\312\244?\354\035\213\274\332\030\353>\364\256\206\275g\002Z\274B\323O\276p\300\234=-\275\010\274\030\340\276>\221\322^=\242\375\202=Z\374\212=\314Z\227:\375PM;\325vl;\366\017?<Ha\204:X\032\200:\021\323\277:]\3173;!\224k<\010\374\212:\201\206\236;\365\335n:\204\352\306;l\223n<5s\004<xFR=e1\335<\327y\273<\210\032\013>\251:09\370\263\214<@tH?.7n>\233\260\321>\257X0>\035e\">\316N$>\t\355I>\251\225\033>Id\371=\2252;>\274\2108>\234v\216=\263\302\007>r\243\213:{\032\226;\363\372\263;\3368\020<\335<?:\241\212\236:\2535\263:\344\301f;S\0047<\227(\201:b\207\274;\365H<:\354E\036;\000\000\026C$\303\270=\010;\361=\346\313L@|j8>Ei:>\311mB?.\024\\9I$\021>\0106\204\301\233\n\310?E%K=\331:>>W\224\353=\267\310\334>[\024\032>\010W\322\274\341\027J\275\232N\253=\001\216\023>\321\372\317=\203v\261=\241\014\245:\264\010\206:\335\376f;M(\030;\203Xg;\033\361H;\332a\215:\205d\250:\255\217\267:\342\304\232:\271au:\253\217a:\r\002\327:e\365\322<\244[\006=<\005e=\326\300\362<\306\350N<\037\245\203>\354\241\0109c\223\234=\311\347!?}\235\226>\035D\215>\3615w>\214\370:>es\220>Ah\204>\377\024\\>\304\273C>\315KB>_\275$>\006^\034>\227L\373=\361a\234:\202\007*:Y\235S;\314\362\010;\267Aj;\201\2423;#F*:\271\242{:\226\306\212:\237\303H:\232\230R:=g\032:&\"\211:\000\000HC\006\203y=\345\354\364<\306\275P@\003o\327=a\210\331=\237\324\'?\000\'\2159\374h\354=i\020\221\301\204\223\234?w\3069?\321\236e>\352\305S<\314h\321>\016\263\034=\302Y\000= \003\003\276\360\240 <7i\320=O\316\021=.yz\276\3535\270:+W\247:g\303];I\323\276:}Q\327:\203i\275:\261=\016;E\313\353;\021Uh;\023\360(;n\024x:\231a\256:\'\3757;Ag\000<\253f\212;mQ\372<\t$7<L\312@<\003\350\314=\204R\2658\006F><\355\232\235>\255\222\201>\253!V>\251\177&>\301{\233=\212\033\001>\312\325\326=M\301\361=*\376\272=3\276\365=j\242\307=\'\264\215=\211\337\000>xQ\307:\010\007\241:0\376+;[T\201:\244#\330:,\210\211:\311\t\315:ow3<DD\212;4{\322:\275\245\022:T\260\211:\250?1;\267m+C\374\317\316=\213\262\300<1\212F@.\222\'>nO\027>\275\221\212?\217\350{9z\177->K\r\227\301&\246*?p_\274=nl\212>x\333N>#\365\350<\tH\201=q\277=\274\340\342\275\274s\001\323=\025\260\037>\307\266\257\27594\366\275\035\1770:\243^\026;W2_:\'\t\246:\017\224\241:!C5:\201n ;\363\335\241:\253x/;\031\345\354:km[:\347\217\302:c7\351:\003\227\206<\'+\027<\253|\003>\270\370<<\220z6<\357v\217>\252\361\0349\362\025!=\033O\016?\003\363\t?:\223\265>\"A\304>\244\322a>H\320j> w\223>\374(\214>\327\032\244>w\256\254>N\222u>\271v\200>#\2228>\017\030\3459d\022\271;\343\316\233:)p\002;\201S\220:\232\324%:\025U@;Y\207\302:\250\\\317;Z\272@;\250O\006:\213\346\220:GZ\016;UU\005C\247\317\241=\270\327\237=\320;P@s\344\037>I\010#>\357\247P?\\~o9n\222\002>A^\211\301\r\277\237?\\\223 ?H\237\223>\377q\231>\207\246\363>`\307\263<\025\031\033\275@\023\341\275\234\222S\274\334\363E\2761\252+>|\346a\276\307\351\316:-\374H:$\035\336:\356\326\025;\245\360\376:/\261\001;\371\r\200::vc;&\016\002;F/\347:!\312\214;\335\342\263:H\331\007;\212\341\232<\200\032b<8\216\223=\247\367\216<@\206:<K\236U>H\020\0059W?\r=\257\3374?9\341U>\370;u>\303\357\336=\353\270V>\223\357\372=\364\\:>_\313\365=\203&E>\352M\034>\2665(>2e\013>\001\330\372=X\344\353:p\366\025:\371P\212:[\261\366:\343R\014;\2701\014;\024\342>:>\266\242;\034\240\343:a\303\372:\333\230\241;\321P\207:\201\373\300:\267m+C\031~b=\237\206\241<\237\211>@\345\265\311=\332\276\340=\3021\366>\305w\006:\340\226\270=dA\232\301P\335\246?\311\260\336\275\216\231s=\361\360L\274qY|>\265\257\372<\"\037e=~\376\327\274\261$\036>>\335\036>\272\223M\275b=\220\274G\275;:\206\242A:\237\353\224:\177\216\321:8\352\346:z\217\025;\350;\302:z\n\310:~\253A;\220U\254:N[H:\367\251^:U,\277:\231r\201<\317\214\005<K\246E>-I\305<Q$\242<6\020\200>\223\231u9j{\r=O\332-?\246*9?\002@\370>C=\302>{\322\232>\260\325\357>\322\240\255>\007M\217>\304\215`>\360\310\323>\221D\252>\036\n\220>D3a>\300\256G:_\0039:3\325_:N]\346:`\002\271:s8\001;\211\017\n;\225\343\265:*\366e;3H\270:\337\247y:\361\036K:\007.]:\000\000HC\313\323\203=\366\006\207=x{L@\311b\037>\325\0200>\231y\r?\240\245\3409xW\271=\215\373\215\301\243A\315?>\210\227>WCI>)\233\314=C<x>nY}<\232\016\203<\264\220\372\275:.\310=\240\355\326\275=\300k\275\361\364\r\276S\026&:\025\002n:\033\214w:\344=\270:E<\200:x\340\241:`\331\000;\317W2;\237Lp;\2151\263:\202\206\371:8G\247:\312\223\316:\223\321\250<\014\337c<\307A\316=h\272\372<\347\377i<|@}>\275\276\2319\367\345\014=\230\2621?\373\264\262>\273\313\332>\005v`>)\214j>O\242Y>\223Z\247>O\252\224>\320\347`>\2566\236>\250\"o>%\312\242>w\304a>\275\0315:L:y:RoB:\007z\203:],6:\000\022\216:\320&\317:\275\031\t;\354hS;\243\343\340:\226\230\205;$\002\256:\364\275\223:\000\000\026C\"(0=\377zZ=B\004F@Q\233\231=\205\203\302=9\362n>\307\226\333:\\\257\202=t\313\233\301B\371\244?\340\366b\276p\201\325\275\373ls\276P8\317>\013)\227>\013\277<\275\313c\'\277\177\207\020\276\030R&>1\372\255=\335\254\206=k\001E:>E\214:m\r\220;Sw\315:\323\315\314:\226\263\007;H*\220;yYf;\\\006\3359)\250\1779+\204(:\314\001\2039\177\013j;\301\026\213<^\376\007=/Q_>{\260\035<V\232s<\344\214l>\353E\223:\271I\005=#\310\230?\201\330R?\324<\365>\201@\261>\325\241\343>\217\025\014?h\207\252>\026\267\026?\271\220\230>\355\324\333>`\272\365>\023\204\320>\320\367\204>~\207\227:}\036\026; \t\000<.{!;\260mA;y\263>;\0059E<\335\014\"<\344\226\235:Hf\2219R^]:\324x\2579X\236\200;\267m+Cg\252W=\367~D=\315(Q@Af#>3s9>\327/\325>]\334\000:7\014S=\243\220\227\301\033\371\347?.\2623?xk\030>\\\226\335=\340\014F=fE\246\275)\314y>+\341?>d\274\241>N\365$=\233\325\277\275\202u\251\275\342\203\035:\364M\2369\261\361\265:1\232i;\031y\033:y2\375:\305\226*:\271\221\302:\330K\346:-%\\;>\206\023<\317\360\3659AIW;\rq\027<\336\013\013<MZ<=\326\371\244<L\210U<\221\026\351=DN\2069=\231\366<\205d\332>\036:\204>\345A\337>\341\220\251>1\245\'>k\314\226>\371\357k>3\200i>(\270e>\274L\271>\205\013%>\013\235\'>\252\257[>s\320&:\230\026\2039\301L\323:\027\035\211;\243\367\2739\3079\335:\014\205\3529V\215\252:\300\033\346:f\322~;\317\236\203<\252\036\2649\374\210\212;\000\000pCh\001?=f\323\224= \212Q@\215\313\343=\207\330\010>\032)\323>K?\000:\253\324\247=a\333\214\301\321\206\307?\272\3755?H\326\277>\241\353\355\275\351[\251>\215-\316\275\037x#\275M\366\372=\213\352O>([2\275\022k\033\276\320\253\233\275\370\253\352:1\225&:\353\262;;\377\202\311:\304\277\210:y\323\263:\3731M:(\230B;\020\221V:\350\314\307:\311`\226:\350\001\353:\331\013\307:\304\330\326;*\265t<\366U\013=\275\031y<m\361C<\263\205\225=\220|\2209\222\350\016<\265\303\353>\335\341]>y\037_>V\000\364=\221\206\013>\210\371\330=\340\002\020>\347j5>w\267+>\330\356\201>\003a\027>\322\361;>+\343,>\033\006\224:<\325\3349363;\027t\027;\207\365\245:\312\271\222:\177\261H:\\\300};7Q/:n*\216:\275\033k:\311\225\232:\262\373p:\000\000\360B\277V\034=?\331\303<>\377A@\333\255\034>\tV@>\317]\201>\324\252\3679\347#\031=\323\376\235\301\246\2764@,\261\372\275\202Q\260<\333eh=\350}\202\274\324\272\223\275Ym\202>\333\272\300>\232gQ>q\225\246==?\334\273L\243}>IP.;h\235\3019\210u\211;\322\212P;p\256\013:\310\215\3579>Q3;;\270\021;\214\360\321:\364\320\031;\"\246\272:\335\333\266:\225m\013;\324\276\017<\336\341\330;?m\026>P*\217<-\013\001<7\365\342=\nP.9\267lA<e\306\277>e\337\211>\221n}>2\035e>{g\024>k\367_>\265\372\366=\364=B>I\311Z>}\326j>\314\332[>\005\274\354=\303\017C>\205\220\235;\222I\2569\237Ba;\220+=;\360\020\2539\317&`9\t\027\023;\340+\022;\375\212\001;\006\264\007;]\005\240:\254q\224:Y@\235:UU\005C3i\272=\227L\303<\363_-@\204N\027>\031#$>\322>\013?\214\002\2269\216O\277=\254t\232\301&\253\267?<\025\204\276\370\260\235>n\347\356=\255\357\305>\036\256\205>l~\207>\205\365\232=\031\027\246;\340\361\252<~\304&=\r\241\273;\'\327^:eD\207:m\223\006;\366\234\003;\337\351\315:EM\320:9\306\337:=\342\222:\322\320Z:m\301\213:H\360T:\210)-:\371.y:\262\313f=\275\224%<\347\353\000?|4\321<\026\013\206<\255\211\267>\2736?9_\357\246=\030\236\262?\003,\036?\273\3243?W]\316>r0X>\372\356v>\311:X>&\3331>P-\023>/\2521>\321\251(>\324B\030>\246\020\016>y\372\022:\233L%:\367J\250:\261\202\346:\003\344\252:\321-\220:?\346\245:E\246\023:=\225\013:&\315]:2?\000:\275Q\2649u\004\3449\000\000HC\256\2300=\001;2<\307P0@\326e\267=v\355\352=a\237\">\312\232\305:\243Ot=\251\020\257\301\2169\352?@\001b\277\211h\037\275\377\344\301\276K\302\001\277g\027\"\2762\325/\275\024\207\306>\346\370\213\275P\224\216=8\003\'>\205@X\276,;];,p\":\274\030>:\0003?:a\355D:\206^5: \243\010:\223\253 :}\226\016:\343z\025;V\362\305:~\335E;\r\240\376:\360\206=<\261\343\017<\t<\322>C\246\252<\323\247\235<\236d\t>5\375]:D\201\256<\242i\311?F\371\005?\033|\025?\344\266\341>\206i\221>j\237\316>k\223\237>Y\344\353>\366\261\232>KD\260>\365\330\255>\020E\240>\317\257`>\367y0;\322\253\322:\376\017\222:S=\251:X]m:\370\362\202:i\333[:)\224U:\n\003\211:u\372\205;<0\002;\353$\317;\251\313\340:\000\000pC\211\340\367=\226[x==\214Q@\370BQ>\251\3047>~a\261?UO\3428u\261M>\221\223\216\301r\204b?y\350\204?\3105~>\225\241\247>\344\373|>\036c\234=\267N\203\274J\211\221=\274\357\020>\274]\021\275\314\320\006\275,\'\235\274\251\005\217:\354L\004:\221\343D;\226\3549:\352\267\014:\035L\r;\246\362.:\260\263\213;h\002&:t\252C;q\343}:\312\001\r:\316&\355:\313\301D<G\254\031<\370\307\231<\357\026I<5\273\t<\010a\001>\342\035\3327\251\244\237<|\232\200>(\3070>\330\271L>=\257\311=\234\247\310=\252\024\231=\037\024\265=\232\220\020>\3074\374=\000\177\343=\327\'\271=\371[\310=A\016\205=\201j\201:e\341\035:\245\273\371:Nu\3329\370\361\2259\213\240\000;i\360\3669\326jm;\326\272\014:s\342\203;\031\234I:\261M\2619\275\267\223:\000\000pC\256\254\311=\376uG=\021/P@\350\245J>X\373<>apv?[\n\2578\360\346A>\354J\217\301\217$\221?\255\r\217\275g=\357>\255\2070>\264W\221>\263\365F>\3266\201>\353\230\323=\273-\361=O\013\344=Z\342\356=\227Xl=\224\274\033:\320h\035:\001\333\005<\023J_;vd\214:\225?\374:cV\030;lf}:\365l8:\232\363c:nQ(:\016\"\211:\215\307\033;]\030\335<\035\306\244<c\235\202=\333\224\302<\317\203J<\321x\236>\254)\3247@\006\257=\037\274\304>\3673\224>&\036M>\241](>\266\202\360=\037\357\274=\352\327\331=\300\231\351=\360\370\251=\343\033\223=\367\254\233=\264\277\202=\212\311X=\323\033\2319\255N\010:\001\370\376;\217D\005;FE\022:D\267\212:\026\032\233:\353\177S:R\237\n:\021\205\007:\347>\2469\323\346R:\340\307\000;\000\000\026C-\'\232=\353\201\307<\367\213P@H\214\025>g\245!>\275\0137?\255\030H9\356\304\357=\365\020\222\301B<\211?b\352\213=\336\272\004?M\210\026?-\022\331\275\304\035\000=\253\324x>\236\276n=\346?(=I\265\232\275K\336\"\276\342\026\027\276}\304\004;\303\002c:u\265\224<\003\022\031;\325\323\016;\333\252\";\014Q\";\323\016\031<\236V\003;N\245\003;T\241\016;\035Y\320:\305\223\276;o\3241<-Cy;b\231\030=\350\210u<\"\305><%\013\013>/\304s8\363k\217<b\265\211>o\214\213>/\241F>d\007\204>T\274\\>[\0172>\233\235\'>b>Y>dw6>@\211\037>{\323.>1\003\363=\307\010\306=\013\024\';cY@:\273\320\230<Z4\017;Ck\017;V\010\014;k\231\330:\177=\003<\226\220\351:~\013\353:\317\005\362:\342P\264:j\230\233;\000\000\360B\316-\213=}[;=\332!E@\352\203#><\034->5*\035?\226/\2509w\306\317=\027n\220\301m\264\270?\275\313w>\007\r\277>8j\335=\002\346\255>\325\245\243\274j\"\362=\030\3655\275k9\006>F\302\366=\237mS>\271s\256;GZ\225:\276\024v:\374+<;\332A\252:/~\005;\310[k:\242\003\022;`9\203:\n$\':O\377x:\211|\033:O\004\267:\275\022\257:\241\233\271<\231AY<\227\313\t>:M\344<]\214\205<\337!j>1\204\0309\370\033}=\002m7?Cw\333>\236\233\307>\234\353C>\216nY>a\0057>\353\0272>\025!C>\356\371U>\330\340\">\273Qs>\364\022W>\235\240\'>\r3c:\365\002\':\217\237@;\316\273`:I\3750;\201\352U:\013\277\006;\241Cn:u\344\3709&\302\023:f\356\2339\0231\266:\274\003P:\267m+C\256v\273=4\266\234<\\LQ@\243J\033>\027\003\035>\"\346~?:\372C9l\255\036>u\330\225\301\206\317\213?\332\271\006?\353`\336=/\003S>4\346\323>\026\032\231\274F\306(=\037z#>\327qH>U/\226\274\006N`\275\231\r\367\274 H\234:\307%9:\343\212\323;\246\377\201;A\325\256:|\232\342:\351_\r;\362\261\236;\031\020j:\361\344\001;d\230&;h=\340:\36650;\035\226\022<\214\3379;\023<\260<\313e\350;\031\375\023<\316^\010>\234\312\2338\335\2449<1\022\236>\350\026V><\336<>s\244#>\213t8>\377\243g>\220\2244>\306\233\'>\371\017=>\210\263\031>\376\311V>S\002\036>\216%\361=_;W:r\361\t:\337\205\266;\006B\302;\257\202\204:\027t\243:\031\325\003;\220\244\234;*\343M:\023\217\343:\220W\030;\n\272\272:\344D\361:\267m+C\343J\240=\265\246\231=>|O@G\343\030>\371v\">\343\311>?s9I9\016\242\356=B}\206\301\224\230}?\327\023 >\260c\373>\036-\200>SN\224>>\354\215\274\343\274\245\274\307aK\275d\216\357=\221C\273\275\262\312\207=v+\033=\336\023\200:Zv\022:.\352\365:\221\263\210:\226k\241:z\226\303:`6R:\035[\242:\362\203_:\361\365\204:k\200I;\2113\237:\253;\205:\217\2500<\3655\007<\233\375\360<\270\371\177<\245.7<\355\r\020>\203\355U8\356V\212<\256-i>\030R\025>Itp>MG\027>K\324\010>\013\356\361=\342\237\333=\006[\354=f\351\031>\347i#>0\020\026>\3050&>?\245V>\033\033k:\276q\3249\264\272\266:\005\031\027:\222\305@:eF\211:I\010\030:Hw\230:\375\366\3469.\205\213:?\244\025;&\024A:K{\026:\000\000HCV\362\207=\230VG=\035\255\'@\025{\r>&\330/>\234\353\233>#A\3019\027\216\r=`\251\224\301,b\024@X|\203>\tsT>\362h\254>\\\302!>\206ui>\305\031\007>\340#\331=\036\254\237<\317\317\300=\251\277\350<\316\327\216=~\177\201:\233\320{:S\341?;\243K\n;\335\262!;$q\020;\021\007>;\014\316\017;?\301\256:~J\260:\362W\231:\025\256\362:0\327\241:\256\000\222<\340.S<\307li>\214\321\207<\345\021:<\270\313\003>\215\247\0339\027\202\247<<\253\005?\267>\322>\177\324\212>5?\201>\374A\214>\021\027\036>\026Q\'>+\021\r>\"I\010>\006\206\n>\022\251Q>/`&>I%\364=L\370V:)\274.:\217\212\346:\304/r:^(\217:\021\r\312:B^\033;H\217\324:\254\030\202:\332\220\200:\177;\035:\236V\213:ku\014:\212\235\270B:\272\323<\362Y\242<@!C@\256\340j=_\362\304=\376\020q=\315\345\366:\376\231\026=\274\203\246\301/[4@\312nT\277!\237P\276|\314\242\276Y\301S\276\264b\336\275\320?\274\275\341\255y\276*\313\231=*\224\027\276\261!\200=2\2712\276\2371\033;\302e\3369\206\020\2739\375\257\2749\375b\026:\343\022Z:\357\231/:2d\3569\252O\032::\310\2549\2401\201:\341\362\333:2q\253:\372y?;f\033@<Q:\212>VO\321;\233\220}<4\264\025=gdU:{b\272;\237v\247?\202\221\t?\262cX>\006\026`>\017\315\025>\360\020\037>\375\377P>f\013P>.\213\\>(\273\274>9\366T>\2352F>t\205G>\371\230\231;)3\003:}\351\3469z\332\2259\355\257\203:F\360(;\244q\372:\273\345\3139\313{_:\237\333o9\267\261\377:r\315^;\017/\314:UU\005Ch*\"=\275AG=\224gN@ve\255=\213\274\346=\203\232\205>\177]\206:\201\367\216=\256f\224\301\262\257\326?\250\240\010\275\215\315\320>hZ\266\274\016\344\321=mxU=\206\330\301\2753\236\036\276\346\324x>\0340\266=\260\330\027\275\207\211\272\273D\035\3479\370\317 ::\t\006;\320\325-:\007:\2579=\177\3649^\022\330:\207\205\2719D\226$:\014\245\2769\241\377\3719!9\3419G\205r:M\314\025<\335=4<\274\234\216=\323\0227<\266\375h<\206\263\036>\"\302\3409rq\266<\026[\020?\235\032\357>Q\357[>\305\342:>Q\376<>\272jY>\223\212q>\272_r>\315\322\216>\246\006\215>\331\352\202>b\005O>\252\334\">_\215\3219\234\023&:\216\377\257;Hd):\315\307\2029\223\252\2119H\266\357:\024w\2719|M\251:0\347p9\271\217\3639\370\304\2349\342\340\276:\000\000pC\375\022S=1z\355=\007\017S@\321\343\025>]X->\246x\330>Q\242n:\262\314\210=\335;\214\301\0077\340?v\360\253>\353\206\001?\r\206\216>\365D\211>\256I_>j\201\236\274\2464\374\275\267\334\205=\000\215\341\275\206\310\034\274\362\223\214\275\234\302\300:\254\2027: \350\017;fY\005;\301\273&;\234\256\034;L\303W:\017\014(;\201\200\322:\206\304E:N\337\217:n\345T:\025\222\336:I\315\301<\335m\251<x\037\225<G\326\n=\325\364\275<\0359|>$\304\233:a\366)=\313\321\247?\'\315\007?\346X\211>\206\376U>\032\313*>Pt\r>7h{>)OJ>\334eH>\343\302b>\365\336O> \007V>\223\350w>\243!\t;]\366!:pG\035;`p\";T@M;r\353\020;\256\000l:\325\002B;\3317\370:\374#C:~\336\234:\031\330P:\232\266\201:\000\000\026C\236U\332<\030\347\267<\265\031>@\232,\273=\330,\004>\334\346\037>d\344\240:\311(\353<=^\245\301#\355/@\307)\233\275\201\017\177\276\247\"I>\375\032\303=\271\237\342=\235\273\341>\376\352Q>\261\242f\275O\351\340=\201t\013=\271\3727\276\274\216\273:\177\251\n:5\243\367:\030\223\355:7Z\014:z\2032:&\256\3009c\211::\262\020\013;\333\350\264:\233\242\232:\017p\310:\235\321\264:V\374\372;\377g%<FT!>Z\024\267<\301\247\207<\377H\270=\\\355\263:\227\226\016<\276\244\303?hf\276>\342\311\350>\211\322\207>\255\031\251>5\232\244>A\370\217>\373\206\264>\010\304\307>\023\323\236>\242\237\274>_*O>n\3332>\220\217\t;\026\276\3539\341\341\035;zD\252:\n\022\027:\016\214q:m&\2279\r\217\241:\000!\302:A6\235:\307v\374:$FB;s\261W:\000\000HC\331\350\300=\346\274T==\013P@\314\3449>\221\025%>\017\n\224?\330\204Z9\356\2723>\000\306\223\301\373N\203?!\206\221?.G\243>\236\317\313>\216!7>DBG=\006\0373>\356\226\005\276\243\240\363=\253\342\227\275K8\211=\013\017U\276\300W*:\2336\3279\3229\201;\300g\274:M\2131;\210\276\r;;\375\277:\376\354\221:\305.v:\003p\007;\020]\005;sU\214:\3268\027;\263\232><c\024\014<+\'\362<\277\022\223<\004\326\201<^\343\034>P\261p8j\375\232<x\361\320>%\214j>T\323\201>\366\3003>M\356\033>S\246\033>x\324\206>\215\2649>\234KB>\332K\007>}\032\212>7\371\023>\306M\317=\352\315\2329&f\3679\354\266\262;\374\223\230:\006`\257;\203\252\020;u\306.;\016g\314:;\334\233:\237\304\225;\002\2679;n\014\\:\227\350\371:\267m+C\322\275!=\334T\362<\002\362G@\274\t\005>f[*>\354\323\204>\376~\223:\330Nu=A\224\242\301\024\005\016@\254\324\316\275Rh\244>\320\244\270=\002{/\276N\344<\275\007\326\330\2769\332\207\274 \327\267<\217\371\326=\016@\035=\221\264Z=c\2246;!\032\215;\177S\366:9\252S:pp\243:\017\305>;\330\354\025;%\267B;DB\331:^\010\243:Kn\022;\261\357\354:iP\203;\365\334\274<\273\245\221<{\0329>\365YY=\303\203\317<\3652\224>\335\257%:g\360\231=\030\376\212?Wr4?\306<5?\256\224\304>`\000\275>\271m\230>,!\222>4C\t?Gk\353>#\t\005?\276\035\311>B4\305>M\212\255>\374n\314;\251f.<\366\203H;\327@\232:\035H\362:k\260\342;N\214\224;\332\320\274;\250\'s;\2332\277:\311\032\214;\324\222\271;r\013Z;UU\005CL-h=\261\277\005=\252JH@\277\207\346=\364\366\367=I \030?\001\202\3419\322\213\323=\\\335\226\301\233o\325?1\235\037?r\277\036\276\340\247]>\325\255S>\214\341\372>A`t>k\0328\276\n\023K\276\211\264\032\276$^\273=\023UH>\177\220K;2\215\220:y\020%<\277\374I;\361W\217;;\300\377:=.\357:\254r\242:\033M\304:b\253\331:|$\200:\026\027\034;2\375\201;Ulk<\261N\334;Hj\020>\240\313V<\272\223\031<\"\3562>S\204\3728\307\022<=\013\371\304>\000 \304>\241C\005?=s\250>\034\361U><\277g>\332y\211>\227\304a>\201{\217>\'\304\247>|w\200>\220D\230>\254\246\236>\206\323\306;\213\263\207:\346/z<\215\370a;\222mG;\374,\034;\267\320\037;\375HZ:\250{\237:\025\372\355:\377\033\025:R\177\240;\327\r\203;\000\000\026C\367\370\344<(E\013=\203\3129@yk\331=\267\376 >\352\007\271=\013\350%;\236\363\277<\213T\252\301\214fM@\320\375\000>\231\300\266>0\316\022<\252\343&>;\226M=\226\347\271=0\272\000=)\031\227>\025\211\300<\304\236\244\274\315\325\277\275k\316_:\320\277\270:\355N{:\227tr:\240\334\021:i\252?:\203\255\241;\363Nn;\335\235\374:\277\366#;\235}V;\277mf;V\010j;\036\213{<\360z\241<\2009\376>\307\232\377<\346\346\274<\001I\225=\224T\331:RP,<\367\345\374?\177T\374>\025\274G?\264\021\222>iz\251>\311\352\245>$\233\177>\214h\227>1\354\202>\325\313\201>\2013m>\210\256\211>B\243\327>#\250\313:\377\331 ;%\026\273:+\343\325:\225\nH:\243\223\213:\314\243\354;|\344\255;\347\021\313;0\304\000<\372%\003<l\006\363;T\242d;\000\000\026CU\236>=<7\231=\\\237P@\022\275\365=\361A\034>\263}\227>3\331\3369\027Ju=\246j\213\301\315\210\374?zp3>Q\331\">et\216\276\342;\226>\223\207\001\276\000!\277\275\330\261\324\275L\260\263=#/\242\275+\211\266\275\244/l\275 X\353:L`\331:\232n\205:\241\375\227:$KM;\342w\300:\001\327\221:t\350R:3\240\215:\221\313\014:\n&\035;)m\023;\0350\276:/\322\320;\337\224\r<\351\323\270<\265fI<\246V\014<\306\342\210=eK\0219\357\325\211<-\031\237>\221\362\\>~.q>\255\177Y>s\300h>\203_<>\022nS>\2268\372=lv(>\024\257$>\257\264\025>\252w*>\235\360\365=\272\351\320:\335 \334:\006\363v:\251\277~:V3\";\233\342\'::!\204:\252h\036:\355\260e:] \3119l\215\373:\261\313?;\014F6:\000\000\026C\363\020\225=S\234\337<M\353P@\030\337\027>\315M)>K\007:?!\017\2049\373\317\322=\304\256\223\301\244\355\217?r\367\260=b\277\227>1\377V>\352\276\335>=\251\215<\300%\335<\031\264\210\275w0\354=se1\275\331\235\210<UXz\272@\311S:\271\362n:c\370\362:\215+\364:,\\T:8\'R;\215~@:s\2520;\337X\251:>\273\333:\316\"\005;U\ra:\264\303\331:8l?<gg\r<z\033\344<\366<S<(u\006<9rR>\323\275\3048\005\333\220<\344\233\362>j\327T>\316\320\314>\201\177\033>\346H_>\256\356S>\262!/>\013\276\027><b\321=\217<:>\252M\000>\374\224\035>\235\370\030>pM^:\227|{:\255{\001;\227\354\007;\000,\024:\362Yo;\244\033\030:y\026.;dV\220:7;\277:\300\035\366:cn\3409a\365c:\000\000HC\356R0=\326+\325<\313-N@\177\356\344=\315\r\022>\005\302\210>\327r$:&\024W=\375.\232\301,=\376?\343\032V\276\274\237\034?\300\016\271>:\3314>\217\007\261\275$\375\217>7\232\245\274\355\312p\275`\270\342\275\016\\\010>*\275+=jE\3069}(z:<\276-;\357\312r:\244C);_:-:\234\345\031<\354H\370:r\350Q:D\336V;$B\376:x1}:I\035i;\362\251\315;=Q\354;\2605s=\235\tD<\241\304A<\034D\304=f\000\\9\233CE<\362\035\351>1l\215>t\357\222>(\364\244>Y\206e>*\241\201>i\337->\267}\226>_\262\203>l\212[>\327ZQ>\225a>>\236\201d>z\373\2369oo\336:HV0;>Q{:\372\327m;+h\3369\003\377d<\370\014\031;\225\201\216:\257\027\224;\257B[;l\201W:o\ti;\267m+C\211 \247=\035\257\347<\350sS@\214z\013>\341\"\t>\332~f?\003Mv9\r\350\017>\216\311\223\301\002M\225?\261;/=Pcg\276%/3?\244\003\372>Q\210\021\275\035pN=}j\030=\007,\214>\211\2662>\320\367\020\276\227\320\352\274\0279\210:\324\202\030:\372\315\251:9\216\303:J\"\271:%\322[;8\224\204:|\206-;\363\245\\:F\315\221:\273[\034;\257\341h:\253\227\315:\222\'?<Lc\242:\225\350 <|\204\001<\364\314\325;7\3756>\352\026\2658c\013\220<\300g\201>T\332\243>GE4>\305[t>\346\'[>!n\250>jW\205>\250\314y>#\023\200>\005\220j>B%\240>1\nA>q\224\342=8\022\243:\203\336\2719\020#A:\366e\335:\262\275\233:~\336?;\001\352;:\354ue;C\346\3579=5\201:\335\2438;\332\224I:\201\240\210:\000\000\026C\363km=\270\0109=\200\320O@\275\032\034>\346\0245>\301\240\362>\365$\32491\\\244=\240_\221\301\034A\323?=\271u>X#\210>>\3424\276]k\213>\017\305\204\276\004\201\350\275b\013\013\276\n\023\257>VW]> \265e=\3734^=#\204g:Q\260\226:\333\311\234:\217\267\005;\270\026\204:~\216\016;=X#;\267\373\202:\017F\014;2\t*:\023\377{:,b\':\036%\251:\331\323\032<Vt\354;\002l6=c\2308<\227\002\024<\\\241\002>#\210\0229r\225\330<\217\224\353>J\262\234>\205\244\321>V\323R>\014ln>\204mh>5q\253>\014\025r>\332\212f>\024\266M>\224j\\>\roC>^\2775>\002R\000;\327\364\244:\242\353\240:\357\017\013;\374\nb:te\027;\356\223\022;m\346\211:`B\352:\353C\3419y`r:\\ZR:\0002Q:\000\000\360B+\331W=\360\223\256=<qR@\271\201\032>e\0054>\315W\317>\312\334\3229\224jp=\033\233\213\301\2078\347?\2043\342\274w\215r>\374^\000>R\320\314\275\026\332\276<\251\207\">0\364\325=\272\371\345<g^\025;\335\023d>I|\205>\310\023\225:\023\257\204:\033\"k;s\330-;\n\206B;\031\301\331:\347\225\235:\320L\036:\355~E:\010\371H:\217\217c:F\030@:`H\270:s\321@<L{\016<BV\r=&{\251<\260\250;<\3475\013>\264\202?9i2\246<\337p\245>\316\264\213>\3008\216>\262\344\230>\230\326E>\311&d>f\230K>\253!\036>\315g\202>+\204/>;\373F>Z;k>\034\324->\232a\026:\316\316\223:\310{ ;:E\006;\355\003\252:0\352\315:S\364\244:\004\360\032:/\354\032:\300\017\3209\201\031\013:\027[\3579I\334\030:\267m+Cd\306\215=\342\235\301=[\017S@>V\032>\037\014 >\307\2524?\307\'\2209H\264\356=F\255\210\301\253\037\315?m\233\032?LR\226>Gv~>\305\275\214>/z\225=\357O\223=\262t\366\274\000\275b>o\376\256<>G\367\2754\344\"\275\001\001\220:N\320R:6)i;\261\203\276;\004\276\006;\333T\315:\021`\337:x\374\252:U\t[;vo\032;\242\231\355:\240+{:8\246\';\n\200\211<\010s_<\247\247X<?\243\204<\352\365\'<\221\366D>\325\266\0169\340e\032=\023\233\265>\1776Q>R\231K>\357;\305=\333\010\n>x\356\325=\036\026\361=>\240\026>\340?\357=\361~\030>\021\252\020>\232\357\332=\223\r\356=\360\343\232:G\'\3709)z);\265\305\255;\262I\006;\342b\020;e\232\222;\340\360\220:$\225\202;S!\017;\004\006\005;\223\344\200:\345\273\310:\000\000\026C\230\021\201<\350}\036=\307\3574@\227\236\020>r\003B>.\021s=\221\254\266;\020\271\375;\3257\262\301\253\3557@}\271\"?\253-\205?\337\316\355>\303I\363>-L\226>FN\214>\227\025*=\220e\002>oj\345\274i\265\364\275\247A\374\2757\200\3438\020\207\251:i\010p:\263\274\017:2\030\215:\260Fk=\354\317\025:A/D9\243\307\0109=\243\035:}\304!9\026(t;\214\264\207<\370\257\267;\251\325U<\272\350C>\247\273\211=&[O==\r4=r\224\276;\356\341\254:\2449\205?iD\244>\227hV>k\311G>\025tB>\005\330\005>\252pW>\220\365N>\320\030m>\200\347\004>y\177$>\256\343\000>\037\0037>HS\2008z\026M;\362\305C:<,\000:_\202\275:\033\001\201=\277\357f:*me9\357\325O9\005(b:\253\213\3658i\364\235;\260\230\210<UU\005C@\225\r==w\236<\2748C@\246\251\030>\355\026C>+\345\\>\252\377\3769\320\207\267<\274>\244\301U\200\t@\315n\007?c\204\236>\216\331\272>g2\'?\352\334\200=#\341\213<\3338\321<\241}.\276u\364\005\275\275%\305\2737\311\205=\021}\317:\033\311&;\035\343\022;\031C\236;\031\t\317:\243\013\336:\311J\234:SZ?;\022B\033;e\366\034:\360\242\263:\374\350\000<qk\033;5\037\303;1\305\205;\252\323\343=2\261\001<?9\257;VOG=6l\0079\270;\352;\216\320\252>\377\270K>g\223j>\331K\345=&p\216=\304{\313=\300\275\221=nO\267=1\344\335=\201\266\235=\"\'\230=\360B\203=\221Ej=\326\274\204:\033\304\311:\037\202N:<\202\016;\216\2004:\265\244\244:t\257#:&:\264:\004\032\251:\301\215\2659R}\204:\010\301\277;\212\340\255:\000\000HC\001L\226=\035i\036=\342\305H@\005\361\036>\342\360\">D\343K?\020\367h9\0346\n>\001%\220\301\000~\323?\300r\000?b\337\362<\210\266\252<BG\003>^F\323<\350\325\023\275\245M\234\274\212\315\343=J\255[\273\r\232\013\275\"Z\345\275\312\371\275:\372\256Q;\205\020v;\301|\003;\242\2712;\311\216\301:5\341\261:\330\2363;\021\221\006;\030f\266:\277D\324:\020\352\276:;\354\000;\303\230\206<\243(4<\306c%>\004\177\201<\376=\026<\036W8>Ky\2208\352\316\031=\256\211\260>\232@\227>\266*\235>N\302.>\210\315\201>\3164&>\014x\376=\304\372\005> \220\n>\232u\326=\312\367\327=\361$\001>\222\213\023>\371\263\365:Ys:;\035\363\036;\3516\345:\301,B;I\335\326:\271R\201:\277Vx;\005\016\272:7\022\201:`\200P;g\013\231:zf\230:\000\000pC\024\220\212=|>\302=;HM@*\365\010>\235s\024>\273\214\034?@$\2039\313x\320=t\016\210\301vZ\203?|\274\353>\320\333&?\210J\227=|y\300>>lV>\355\214\346=\321\271N=\016\366v>n\314|<N\243\220=\336WJ\275\232u/:\204\017\031:\260\213\311;\216\326\335:\233\214\";$Gt:}Kb:\022Q\227:@=!:t\202|:\237\035Q;=d\232:M\243\022;\334\371 <vx\242<\005(\254=(-\025<\'\302\027<\212~\313=\255D\2358\303\215]<V\357\321>\320d\203>\305\014\211>\376,$>\010\326\027>\005\251?>\321 %>I\215,>\200\227\037>5\226%>~\270\n>t\363\314=\267\325\356=\032r\007:\257\t0:\347\336\t<=\343\240:\247n!;\312GE:\320\212p:\204\267\252:\035\345\000:\311\207E:A\234.;\356\367\210:\034\242\n;\000\000pC?V\016>\310?L=\214(S@\333\310=>aj\031>\373\256\314?{N\3008a\025s>\351\025\215\301JU\n?\225W\271>E\377\257=X\251\010?\203\2147?\307\324\302>Un\207>v\310\227=\300L\372\275\023\0257=\277\375\022>\277r\321\275\023\361\261:\313\311\027:\210\t\365;yg\000;\237*\320:Ud\246:\271\264\035;\263\202\220:\207\217\002;\227hI:\253\240{:\007\312f:\253\206\017;W\340H<\223\032\246;C\013\'<\362\376)<\0254\013<_b\346=R\232\3007#\253\222<\323\344w>Bp.>\277\020G>\r\233;>q\356\020>\030\035\033>C\307#>\213\310\005>\272\342\001>B\213\330=?\374\323=d\242\323=\007\336\263=#\013\212:\262]\3269\245x\330;\007\317\310:.\010x:\033\377\203:>\310\354:Z_F:\253U\353:-\325\010:i\362\001:#\031x:\310=\332:\000\000\026C\225\333\\=\212\367\335=z\275O@\345\'\033>\353\322&>}\232\372>\302\343\2609\321B\232=\223:\211\301?C\341?\314\324A>\003\204\223>\333ca=\2024\361=\001\023f<\250\017Q<\205\213\235=\r\034\370<5]+\276.\347\030\276\365L\271\2752#\372:\2115\317:\007\353\010;;\270\005;\354\247\372: AX:\247\211\213:*d\350:\202:\303;\211\347\301:\232\210\202:s\001\030;\020\271\";\333F{<\215+\316<l\273[=B!\303<\2300^<\202\2306>/\317\3638\237vQ=\2679+?8\332\275>1d\255>3\021[>\005\336(>wY\234>\354\315O>\n\206!>\307\3553>\241\323P>o\236\202>$\203\207>\035\214.>1\234\003;\'W-;\006\311.;\020V\005;\3538C;\320\'8:\365C~:h\357\332:\r\363\326;\347U\214:I\271c:\201\010\222;\357\363\357:UU\005Cw\325\217=\271\251\336<\0100E@nI\t>Pa\030>+=7?;\270\2149\005e\351=\275X\224\301@D\305?B\220\030?\"Ap>\261\303\036>\325c@>\001F\271= 3\036>\246\006\321\275\004\034\327\275%t)\276\002\236#<\0338\177\276Q\372\362:\354\004U:\351\211\020;n\373J;\027\000\336:2\037\327:\376X\274:\371\361\307:\320\205\305;l\376\255;\340\340\014;\365\323\336:\233v\025;\177H#<L\034\256;Y\255\227=\271n\347;\035\234\017<\027\300\020>\324\243\2418\002\026\212<\017?\311>\246\245@>JE\212>U\267\376=M\342\004>\333\033\354=\224\362\332=7\345O>\233\021J>\327\024*>x\2205>\036&\366=L\215/>\365\026\021;\311\3475:\263]\302:\363\303\020;\252\032\263:u\262\222:\233\350\316:~\025\242:Cqr;\315\\\204;\352\001\363:&\365\241:N\017\217:UU\005C\006wj=P\207]=hvN@\274f\020>I\007%>^\346\323>Z\260\34691.\217=\232M\221\301~\336\336?\222\303\251\275\215\237\326>\246\nD>\2463z>\255\236\026\275\374\357\304=vqq=w\2422=\032q\222\275-u,\276<\366\277\275t(7;\337P,:\242LM;\276\335\000;&Z\276:\3273d;\t(|:\226W\230;\031\3273:\204\026\025;(\0062;\250\256\226:\360Z>;\324\226\217<f\352\302<\275\236\275=H<\377<!\224\237<q\357F>\264g\2219\262t\000=g\347\226?|\225\267>Y\364\211>\031\340}>tJ\206>\232\013x>\205\237[>\300\304\032>\224\2444>?\202{>l\201\205>,\267\177>\256\301)>sb\203;\302\375\030:\347\325\217;\347I|;\234\2768;\301\214\211;\260\234\277:\252\246\223;K\373\035:\202f\020;\336Vm;_\316\032;5A\320:\000\000\360B{\374\247=\246\363\262=h\223R@\203C\034>\300&\032>\233\007e?\361Dd9<*\023>\345\272\206\301\241\215x?Z;\315>c(\000>\372L!>\350\267\266>\"\310\225>\346%\036>\221\257\006>\006E\365=\333E\270=F\004*>\357\034\304:\013fQ:G\034J:\311\345\347;\025\212\013;\334:\276:\361\355\307:\036\300]:\212\242\307:\214\222):\240\263\204:\227\1774:d\322.:\355\364\026;@\033\034<\007i\375;nu\251<\343\321F<\r\3457<\201K >v\027\2538\026\306\273<m$\265>\373\017\211>\"\310\305>\220\325n>F\225W>\210\2051>u\221\026>%\347\n>\372-\001>c\000%>\307\327\025>\241+\350=\322E\355=\322q,:\262;@:\305\275 <\215\310\207;.\217\210:\221R\275:_x%:\347o\313:\370\367\023:m\013\036:\3673\2579^\035\3679\007\377,;UU\005C\201\022\375<RUR=|nM@\017\003\271=v(\006>AW\354=sfm:K\244\025=\304\303\226\3018\227/@\241\221\213\276\217b\341>\016n\216>\024M\246<\'w\021\275\366OE\276r\203\034\276\274p\236\276\226\235\333\274c\262\023>\356\237M>\014\213\006:n\264J:\020\010{;s\212\232;\344\311\032;\352.\354:\253\312\224:&Q\002;\355\246\236:\324\261\343;\030\'\336:\233M\237:\353YB;3\023[<Ehd<lg\271=IL\r=-M\342<\251P\270=\302\310\3469\351\317)<\024mY?\254:\n?\331\235\245>@\273\217>\346=\025>;\3341>\301\000+>Vd_>\305Y\202>bn\205>0\264v>p\317\231>F\342:>\335\002\n:\364\243.:\014S\206;vF\236;\232\032*;\252\357\334:Yv\305:\367t\027;\320{\275:\375\274\346;\370S\306:\243\017\213:\361\256\335:\000\000\026CQF\203=\210\020\236=iv:@X\177\035>\347\207.>\217\206\321>\351\315\2529\262\233b=@\346\215\301\237\347\323?\203m\003>,\254\257>\016w\177<G\207\305>]\3611>hJ9>\200-\355=\353\016\304;K\247K=\214ED=\330-\325<\250!j:\327\034=:n\221\202;m7\313:)V\270:\275\'\336:\263:]:O\304\014;}\0103:\217\244\332:\270\331/:\3642$:\244v\304:\372{\204<\315\223\304<*i.>\2431\207<\032s\021<\030\214;>%\350H9\312w\017=\014\311\334>\300\033@>r&\204>\306\320,>?\221\024>\205d\031>9\304\350=\033=\n>\357\326\r>\025z\342==x\037>\005\272\004>8\026\257=I\217):\347\372J:\254AI;n\202\300:\235\207\232:\272\t\302:\247\306u:\241a<;\264\322=:Z\021\342:u(!:\003\352\3669\366\263Q:UU\005C[T\032=o\371\214=\036+J@$\364\373=\247\265 >H\220\232>\270\032\":\036\241\021=\312\025\225\301L\277\003@\003\304(?\326\373\322>C\311\217>\257\3435>.\005g>\031$}>2,L>\022n\203=\372>v<B\036\270:\336ZP\274\022\246n:LlR:8z\003;\021M\013;6\246\377:*9\251;\260\260\337:\271\264\214:\025\031\217:\013:\022:\211\"A:\322\300\270:\362C\317:\255\374\220<}\324h<|\275\212>O\334\251<\224\177\203<\205\350\014>\\B\3059\017Y\276<*\264\211?\225\266\265>\033!\230>WI\232>\376%Q>\001\205\351=s\274\017>k\256\372=OG\034>\354q&>\317e\026>\246>@>\010\345,>\265\002O:D2\3169Y\276\327:N\250\037;\010?\377:\213\320C;\2447\256:-\271*:\266\325t:\024i\2369\3321(:\t\275p:\316\266W:\000\000pC\334\212\201=\222W\227=\376\216Q@\370\375\001>\377\226\010>\341\274\034?\0134\2459\310e\327=3\244\212\301r\246r?VU\252>IA\360>&\2073>Uo\252>A\265\027\276\273k\'=\303\235\326>\006-\014<\255l\212\275L\333\016\274\220\225\022<f\026\333:i\314\201:$u\324;\367\267 <\351DN:@[\276;]\305\201:I\355.;\261\374@:y\306;;\2409\373:\237\276\211:\3658\304;\242A\363;\037\273J<\353\274\243<\226\357B<d\340V<\304\264(>\\\366\3408\257\034\242<\210\'\375>\313\271\201>\324O\243>\204U\234>\307W\206>\261\3133>\315b\201>0\211\231>\023\016\240>\025bh>3/\211>\034\374{>\210\215\035>%E<;kr\357:H\277\017<\341\022\032=N7G:\302\344\017<,\325\205:\271\337q;\027\362A:\031\0070;;V\007;>\025\360:\337B!<UU\005C%\340\214=J\334\222=k\303D@\363\2270>\303f8>\nG\374>\377\263\2009U\211\215=7\016\221\301\215\202\361?{\300J>\000\230\235>\203\346\233=!Xz>\345\354\250=N\023\257<\003\023\273<\363\251\375\274\276b_=\2226Y>P\217$>B\3763:\363\026p:\006\376\321:\235,\214;h\023\273:\014\256\036;\226\374\231:@li:\253\245*;\\\037(:\363\010\026;\263n+:t\365\322:+py<\312\342+<}\220\307=~X\332</F4<\031\302/>\2665\2308r|`=\273\021\375>h\244\257>}\006\277>E\233\210>\311\250\220>\202\363\007>\351>\215>\311\200k>\032q6>v\013\215>\020~\030>\315M^>\265\360\037>w\372\3309P\210O:\355Sm:F\230J;\333:\236:S\317\003;A\267\247:\206h/:\335\341\003;Y}\3149\332\025\306:{[Z:\231q>:\000\000\360B\356f\223=\230\335\265=-IR@\177\031\013>8x\022>\003\314;?pr|9Aw\355=\333,\210\301<\032B?\360\370\333>\033\252\342>\214\344\315>\213x\036?\357\016k\276>\376\317\274\277\231\010:\2577n>\241\331\244\275D]\010\2767\2416\275\025N*:\204\365!:\2705\300:\\\021\221:]N\211:\311\315\030;\352\013v:`6\236:\004\250\236:}\357\367:\330\257\243:\2124J:\320?\177:\'\2034<\315\206^<I\351\232<\342`\177<\310J-<1\3175>\363/\2608\031_\233<\r\000\241>\246\024R>(\0269>\275\242?>\216+7>i\"H>DLR>7{\016>\361Xd>\261\206\'>r\267\037>#\343N>\023\247\000>8\312\2679<\363\2029\n@\305:\356\022J:\316\323A:\030\216\002;D]\030:\207<3:\2402x::\206\301:\255\030V:\270\370\016:*\322\3639\000\000\026C\2773\213=%h\200=\247\213H@-\253\023>\357O\037>I\365\033?S\t\2349\327\034\307=H\371\213\301\210\263\272?\345`M>\374%L>\367\301/\275\030-\200>m\363{\275!3A\276\036aC\276?+\231\275f[\207\275\014(\024=\353\3764=\316\013\206:<j!;\314\230\222;\202\020\377:\374\263p;\305<.;\256\315\232;\234\216\370:ma\363:\031\013\276:\210!\311:\360\354\264:\265\360/;\ryr<\036\314\250<\333\270\301=7\236\232<\237\317p<\227B@>\301\364\3748\014\250\034=\232\203\027?\257&\247>\0070\346> \244\210>G`o>B\371t>Z\276\205>h\220U>-\256y>\224\277J>#mO>\323\201u>\200HR>\310\236,:Z|\341:\331\352\374;\223\377\036;\221T\245;a-;;L\230A<\234\311\263:\227\227\377:\234\002\334:\333\206\234:\373\270\243:\255\354k;UU\005C\377\236\255=\336<@=\275\037M@\247\2352>N\3649>\277\013n?\363B\2109\271\310\002>\\$\215\301[\266\234?\334[\002>\376\247\227\274\375)\265=\273\365\177>\223\324\211>\321\260\270>\224L}\276&\254\261\274U/*=\370&\217;\224\366\372\275\005!}:\\6\324:%N\232:\003\311\206;`}\020;d\241T;c\2541;\230\352q:UE\221:]\205S:\231J\333;\326\370\300:\376iV;\034N\030<\245s\347;\365\231\250=\263q\004<\277W\216;\033\212\030>{\025\2008\262\251\203<0S\254>\024mJ>O\355\014>\213L,>\235\322B>u\004(>\347\023S>\254\303\204>\336U6>_\251N>t\321M>u\262\027>\217\262\340=\372\312 :^g\031;\333 \355:%\350\005<\361e8;\251\250\236;\250\022%;\324\370k:\345\256\266:YKi:.\037\316;\260\266\257:-\354\013;UU\005C\365w}=(U\266<\327\025\037@s\367\365=\216\352\031>\017\225\261>z0G:L\341\204<\345\001\257\301\331\222\007@CVr?g\007\307<\237\375\274>\333\310j>\334Y\205>\214\036\254=\007Tc>\031o;=s+Q>f#4>\343&\037>\032\316r9\331\265\3748\352\363_:\257\002\001<\213s\036:\004\010\\:\023(\3019\273i\2429 3\3069R\200\0259:\341d:\353\317\'9\333\276\017;\255\207\177<X\257\013<\340\264\207>k\310\364;c\350\031<\003\363\311=C\034\2579\265\007\240<\271\255\227>\323\200\030>\267\322\341=8\232\027>\030\177\007>q\344\343=\255\350\271=r\265\303=\032\'\265=\257\313\007>\263\356\340=\320\274\264=\217{\331=S\274#9\333\350J8\034\365\024:TQ\326;\023%\n:\200h\026:E,q9e\037\2579=\003\3029\327\330\2608\273\324!:H\230\2678\276\307\335:\000\000\026C\220D\"=Z\353\"=f\347B@\330\266\373=V\335&>\205\305x>\327{/:\007p1=\237*\231\301E\\\005@r\316\270>\236\344\252>k\337\362=L\203\217>\270\245c>\303\315\034>\024RB<\376^\032=S\367x\273\007\010\312=\355\307\241=\000_\001:CS\232:K\004(;\230M\272:\'M\301:\220\314j:\241jy:\350\372\005:G\313\205:x\323u:\022\242\342:\306I\370:\264E\234:/\010\347;tiq<\344\365!>\366\377\225<\252\217\223<\310\245Z=l\330\2509\006\265\230<\r\376_?T0\270>\345\272\317>\035\361|>\3503S>\2277Z>b\017`>\327P\200>gW\216>\005\037{>9\314\177>\223\201q>\252\370l>(\270\3379\177\017\332:0\304\005;N%\224:\256\351\310:_\215G:JK\212:\300X\3069\0257\243:.\005P:\362\034\370: C\037;\276\022=:UU\005C8\2716=XX\360=\350lS@^\n:>=\2726>\220\333\376>k*=9r\240`=\255\026\220\301\023\233\210?wcd>\273X\337<\306\340\227=\362\234\250>L\301\252>\375\305\313>d\306\212<\354I}=\317\342\246\271#\3278=\235^0:\267\314e9)\261\2169B\316\030:\343\322\201:\363&\2249\362A\n:\017d(9\332\207d9ld\2559\234:\2369j\240]<\207\227\2239\232\364n;h\241\200<\361$C;U\345e;\311[\003=\231\324\234<\331\221\021>p\206 9`\002\336<3\271S>\323*\235=%\266\024>f(\202=\374\202\266=mj\215=F\327H=\304G>=<\035i=\221\212y=\231\0360=\327\245\\=\330\272\366<(\361\3108W\260\3768H&59\336S\3759\261\277\0109\'y\2229\311\333\2268\322\223\'9n\032#94\304:9J\341\023;<\257\3358)R$:\000\000\360BrW\373=\277.\r=\353\210P@T\025<>\320\345\026>\321U\272?M{\3148\254.F>\037\230\230\301\342DO=\225\245\300?\035\2663>\375\020\213>\276\324C>nn\213>A\317\215>e\217\303>\370`\336>\307\240\177=\006\017\301\274\275}\276\275\256\014\3179%+\2519\n\331\317:\033\375\204:%\300\270:\223\252\t:\035W\3419!vJ:{\375\242:\243\377M:=\207\3179\316t\3239\323\022::\247\303\325;,\364\205;\\\374\254<*\363\221;\333\215o;\216\245K=w\260\2427VQ/<B?\303>\244\201\266=d\252\246>\032\261\247=h\373\014>\272\245\334=(\232\025>=\300\023>^&\034>\262\3312>\247\003\">\235V\346=H\253\377=Q\327#9\316\303 9\370\261\236:\376\0219:\320{\215:h\257\2229\335\343\2019\274\004\3709d\347 :sx\242:\362\211\2259\376gQ9\201^\2629\267m+C\213\033\207=\201G\211=\222\305Q@\034\333\007>\244k\004>{>A?I\037\2239\253\315\374=>\221\220\301\010\241\234?\340[\225?\312\345\360>\370/\260>\322\214\332>\343<\030<9\023\310=y\200<<\010,\225=\016\242$<\255\272\034\275&\312\275<\037\302\274:\n\254\233:.9\237;\344\010\031<H\016\201;\021\346\327;v\305~;\342=\342:\271\203\223:\2469O:eyS:\253\347\264:)\247\251;B\301\231<\013\306\022<\244\225\267<#\202\202<}\357&<H\204u>_l\3178\344\3369=\370\225\372>es2>D<N>\t\024R>E\334(>\321Z\352=\267\004\272=,\230\r>U\242\256=c;\256=\306c\262=\033\335m=\314j]=5s\273:5W1:=\"\264;.Bn<\335\305\205;.\262\006<V>\020<^S/;\204\341m:\274j*:\300)(:\320L\342:^\033m;\000\000pC\340\244\211>\230r\361:,\326\024@00K>\272*->\033r\300?\327W%9\325ev>@c\272\301s\034\035>\207l\201>\037\245\203=c/\021\275,\373m\274W\226\361=\233kZ:\204\322::l\224!=0f\027=\001\216+=\000\026\336<\r\007\327:\036]\225:\236\007\014;\331\336\374:f\325\022;\276\256\001;\263-\017;\3355\367:4{\357:p^\373:;[\315:\350i\302:n)\231:\001;\377<\242 \261:Rh\362>\347\304\005=Jl\226<\254@\264>\024\022\\8\"\237\214=\026\t\025@H\231\301?>\305\202?-aC?\242\017d?\366\344$?\322S\351>7|\007?\377\247\354>7\335\013?!\301\242>\002z\265>\0074\253>\2657\300:\356\tC:A}\303:\361\325\247:\025\216\013;p$\005;\335\251\027;Tq\323:j\351\273:*\016(;\010\350\273:\363H\274:2\025M:\000\000pC\344\235\356=,KI=\n\334D@_\202 >.\222\026>\203=o?\324\277\'9\253\214v>\363\346\222\301@\230\353?\311\020\323\275\004\240\002?\220\360\000?\335\332\253>\3572\212=\202\246\345=c\247\373=\177]^=\0034<=\204j\352\274\344y\266=\342\222k:_\313r:`n\034;0\335@;R\366\014;q|v;a\025\367:{d\270:\246\253\207:\312[\271:W\275\200:\037\214\203:~/\271:(\345<<\2646\313;\024\274\214=\217u\026<s|\224;$\331\307=\253D$8\233\323\026<\233\317\007?\037\315->\023\356\300>Q\211%><\000->{\243\010>cQ\035>\3431\360=\020\021\355=S\320\374=c\267\010>>\002\016>\345\352\001>\271\277\n:\243\177%:\240\330\314:\r4\360:Wd\322:\244\237T;JX\233:\244\311\213:\000^F:\\N>:\3121\000:\366\343\3719~\324=:\000\000HC\250\244\274<KTV=\027\273E@\302\2350=\370q\301=\315=F:\341c\250;\202@\311<>\366\265\301A\266\222@\322t\340\277-~\214\277I\201G\277]\327[<k\214\334=\024\353\264=\017_f\275\311;\r\277\215\036\365\276\275\230\025>^Z&\275\n\337\216:(\314\033:\256j\024:\370\026\2349\014S\2359\233\324\2439\302\216\3728\013O\3258y\317\2018\265\354q9y\003L8\351\351\2549+i\3409\356\241\304:\367d\222<\252\202\370=\0103A<=\236\007=\200,\034:\026\017\014;\361\264\322:\\0\r?\2104\366>\350\271\254>\013wr>_\255\252>)\177e>V\266 >\247n!>u\241d>\324r\320=\t\250\212>\255\356\022>\203\320>>\332\325T:!\375\3659\037\307\':\307n}9\371\242\003:\1779\2579G]\3168\3317\2678&\365&8LB\2339\211\347\0018\270\372\3249\237\nS9\000\000pC\300=\230=\230\263\263=m\320P@e\222#>\337Y\'>< :?\231\006\2209\r\314\350=#\311\213\301V\276\303?f5n?\366\211\320>\022\302R>(\\\200>\347\001\t\276\203\246\000;\014k \276\223\027a=\013\003>\276+\322\200\275\320;\311<\343\356Q;\320\236\253:BN\210;\247 \271:\332\000\374:\225~\013;\003\262\304:\027\204\223;\0049\250:K&4;,